{
    "version": "1.0",
    "truncation": null,
    "padding": null,
    "added_tokens": [
        {
            "id": 0,
            "content": "[UNK]",
            "single_word": false,
            "lstrip": false,
            "rstrip": false,
            "normalized": false,
            "special": true
        },
        {
            "id": 1,
            "content": "[CLS]",
            "single_word": false,
            "lstrip": false,
            "rstrip": false,
            "normalized": false,
            "special": true
        },
        {
            "id": 2,
            "content": "[SEP]",
            "single_word": false,
            "lstrip": false,
            "rstrip": false,
            "normalized": false,
            "special": true
        },
        {
            "id": 3,
            "content": "[PAD]",
            "single_word": false,
            "lstrip": false,
            "rstrip": false,
            "normalized": false,
            "special": true
        },
        {
            "id": 4,
            "content": "[MASK]",
            "single_word": false,
            "lstrip": false,
            "rstrip": false,
            "normalized": false,
            "special": true
        }
    ],
    "normalizer": {
        "type": "Sequence",
        "normalizers": [
            {
                "type": "NFD"
            },
            {
                "type": "StripAccents"
            },
            {
                "type": "Lowercase"
            }
        ]
    },
    "pre_tokenizer": {
        "type": "Sequence",
        "pretokenizers": [
            {
                "type": "Whitespace"
            },
            {
                "type": "Digits",
                "individual_digits": true
            }
        ]
    },
    "post_processor": null,
    "decoder": null,
    "model": {
        "type": "WordPiece",
        "unk_token": "[UNK]",
        "continuing_subword_prefix": "##",
        "max_input_chars_per_word": 100,
        "vocab": {
            "[UNK]": 0,
            "[CLS]": 1,
            "[SEP]": 2,
            "[PAD]": 3,
            "[MASK]": 4,
            "!": 5,
            "\"": 6,
            "#": 7,
            "$": 8,
            "%": 9,
            "&": 10,
            "'": 11,
            "(": 12,
            ")": 13,
            "*": 14,
            "+": 15,
            ",": 16,
            "-": 17,
            ".": 18,
            "/": 19,
            "0": 20,
            "1": 21,
            "2": 22,
            "3": 23,
            "4": 24,
            "5": 25,
            "6": 26,
            "7": 27,
            "8": 28,
            "9": 29,
            ":": 30,
            ";": 31,
            "<": 32,
            "=": 33,
            ">": 34,
            "?": 35,
            "@": 36,
            "[": 37,
            "\\": 38,
            "]": 39,
            "^": 40,
            "_": 41,
            "`": 42,
            "a": 43,
            "b": 44,
            "c": 45,
            "d": 46,
            "e": 47,
            "f": 48,
            "g": 49,
            "h": 50,
            "i": 51,
            "j": 52,
            "k": 53,
            "l": 54,
            "m": 55,
            "n": 56,
            "o": 57,
            "p": 58,
            "q": 59,
            "r": 60,
            "s": 61,
            "t": 62,
            "u": 63,
            "v": 64,
            "w": 65,
            "x": 66,
            "y": 67,
            "z": 68,
            "{": 69,
            "|": 70,
            "}": 71,
            "~": 72,
            "": 73,
            "": 74,
            "": 75,
            "": 76,
            "": 77,
            "": 78,
            "¡": 79,
            "¢": 80,
            "£": 81,
            "¤": 82,
            "¥": 83,
            "§": 84,
            "©": 85,
            "«": 86,
            "­": 87,
            "®": 88,
            "¯": 89,
            "°": 90,
            "±": 91,
            "²": 92,
            "³": 93,
            "´": 94,
            "µ": 95,
            "¶": 96,
            "·": 97,
            "¹": 98,
            "º": 99,
            "»": 100,
            "¼": 101,
            "½": 102,
            "¾": 103,
            "¿": 104,
            "×": 105,
            "ß": 106,
            "æ": 107,
            "ð": 108,
            "÷": 109,
            "ø": 110,
            "þ": 111,
            "đ": 112,
            "ħ": 113,
            "ı": 114,
            "ĸ": 115,
            "ł": 116,
            "ŋ": 117,
            "œ": 118,
            "ŧ": 119,
            "ſ": 120,
            "ƀ": 121,
            "ƈ": 122,
            "ƍ": 123,
            "ƒ": 124,
            "ƙ": 125,
            "ƛ": 126,
            "ƣ": 127,
            "ƥ": 128,
            "ƭ": 129,
            "ƿ": 130,
            "ǀ": 131,
            "ǁ": 132,
            "ǂ": 133,
            "ǃ": 134,
            "ǝ": 135,
            "ȝ": 136,
            "ȷ": 137,
            "ȼ": 138,
            "ɉ": 139,
            "ɐ": 140,
            "ɑ": 141,
            "ɒ": 142,
            "ɓ": 143,
            "ɔ": 144,
            "ɕ": 145,
            "ɖ": 146,
            "ɗ": 147,
            "ɘ": 148,
            "ə": 149,
            "ɚ": 150,
            "ɛ": 151,
            "ɜ": 152,
            "ɞ": 153,
            "ɟ": 154,
            "ɠ": 155,
            "ɡ": 156,
            "ɢ": 157,
            "ɣ": 158,
            "ɤ": 159,
            "ɥ": 160,
            "ɦ": 161,
            "ɧ": 162,
            "ɨ": 163,
            "ɪ": 164,
            "ɫ": 165,
            "ɬ": 166,
            "ɭ": 167,
            "ɮ": 168,
            "ɯ": 169,
            "ɰ": 170,
            "ɱ": 171,
            "ɲ": 172,
            "ɳ": 173,
            "ɴ": 174,
            "ɵ": 175,
            "ɶ": 176,
            "ɷ": 177,
            "ɸ": 178,
            "ɹ": 179,
            "ɺ": 180,
            "ɻ": 181,
            "ɽ": 182,
            "ɾ": 183,
            "ʀ": 184,
            "ʁ": 185,
            "ʂ": 186,
            "ʃ": 187,
            "ʄ": 188,
            "ʇ": 189,
            "ʈ": 190,
            "ʉ": 191,
            "ʊ": 192,
            "ʋ": 193,
            "ʌ": 194,
            "ʍ": 195,
            "ʎ": 196,
            "ʏ": 197,
            "ʐ": 198,
            "ʑ": 199,
            "ʒ": 200,
            "ʔ": 201,
            "ʕ": 202,
            "ʖ": 203,
            "ʗ": 204,
            "ʘ": 205,
            "ʙ": 206,
            "ʛ": 207,
            "ʝ": 208,
            "ʞ": 209,
            "ʟ": 210,
            "ʠ": 211,
            "ʡ": 212,
            "ʢ": 213,
            "ʰ": 214,
            "ʱ": 215,
            "ʲ": 216,
            "ʳ": 217,
            "ʷ": 218,
            "ʹ": 219,
            "ʻ": 220,
            "ʼ": 221,
            "ʽ": 222,
            "ʾ": 223,
            "ʿ": 224,
            "ˀ": 225,
            "ˁ": 226,
            "ˆ": 227,
            "ˇ": 228,
            "ˈ": 229,
            "ˌ": 230,
            "ː": 231,
            "ˑ": 232,
            "˔": 233,
            "˕": 234,
            "˖": 235,
            "˘": 236,
            "˚": 237,
            "˜": 238,
            "˞": 239,
            "ˠ": 240,
            "ˢ": 241,
            "ˣ": 242,
            "ˤ": 243,
            "˥": 244,
            "˦": 245,
            "˧": 246,
            "˨": 247,
            "˩": 248,
            "΄": 249,
            "α": 250,
            "β": 251,
            "γ": 252,
            "δ": 253,
            "ε": 254,
            "ζ": 255,
            "η": 256,
            "θ": 257,
            "ι": 258,
            "κ": 259,
            "λ": 260,
            "μ": 261,
            "ν": 262,
            "ξ": 263,
            "ο": 264,
            "π": 265,
            "ρ": 266,
            "ς": 267,
            "σ": 268,
            "τ": 269,
            "υ": 270,
            "φ": 271,
            "χ": 272,
            "ψ": 273,
            "ω": 274,
            "ϑ": 275,
            "ϕ": 276,
            "ϝ": 277,
            "ϟ": 278,
            "ϵ": 279,
            "а": 280,
            "б": 281,
            "в": 282,
            "г": 283,
            "д": 284,
            "е": 285,
            "ж": 286,
            "з": 287,
            "и": 288,
            "к": 289,
            "л": 290,
            "м": 291,
            "н": 292,
            "о": 293,
            "п": 294,
            "р": 295,
            "с": 296,
            "т": 297,
            "у": 298,
            "ф": 299,
            "х": 300,
            "ц": 301,
            "ч": 302,
            "ш": 303,
            "щ": 304,
            "ъ": 305,
            "ы": 306,
            "ь": 307,
            "э": 308,
            "ю": 309,
            "я": 310,
            "ђ": 311,
            "є": 312,
            "і": 313,
            "ј": 314,
            "љ": 315,
            "њ": 316,
            "ћ": 317,
            "ѡ": 318,
            "ѣ": 319,
            "ѥ": 320,
            "ѧ": 321,
            "ѯ": 322,
            "ѹ": 323,
            "ғ": 324,
            "қ": 325,
            "ү": 326,
            "ҳ": 327,
            "ҷ": 328,
            "ө": 329,
            "ӷ": 330,
            "ա": 331,
            "բ": 332,
            "գ": 333,
            "դ": 334,
            "ե": 335,
            "զ": 336,
            "է": 337,
            "ը": 338,
            "թ": 339,
            "ժ": 340,
            "ի": 341,
            "լ": 342,
            "խ": 343,
            "ծ": 344,
            "կ": 345,
            "հ": 346,
            "ձ": 347,
            "ղ": 348,
            "ճ": 349,
            "մ": 350,
            "յ": 351,
            "ն": 352,
            "շ": 353,
            "ո": 354,
            "չ": 355,
            "պ": 356,
            "ջ": 357,
            "ռ": 358,
            "ս": 359,
            "վ": 360,
            "տ": 361,
            "ր": 362,
            "ց": 363,
            "ւ": 364,
            "փ": 365,
            "ք": 366,
            "օ": 367,
            "և": 368,
            "א": 369,
            "ב": 370,
            "ג": 371,
            "ד": 372,
            "ה": 373,
            "ו": 374,
            "ז": 375,
            "ח": 376,
            "ט": 377,
            "י": 378,
            "ך": 379,
            "כ": 380,
            "ל": 381,
            "ם": 382,
            "מ": 383,
            "ן": 384,
            "נ": 385,
            "ס": 386,
            "ע": 387,
            "ף": 388,
            "פ": 389,
            "ץ": 390,
            "צ": 391,
            "ק": 392,
            "ר": 393,
            "ש": 394,
            "ת": 395,
            "ױ": 396,
            "׳": 397,
            "،": 398,
            "ء": 399,
            "ا": 400,
            "ب": 401,
            "ة": 402,
            "ت": 403,
            "ث": 404,
            "ج": 405,
            "ح": 406,
            "خ": 407,
            "د": 408,
            "ذ": 409,
            "ر": 410,
            "ز": 411,
            "س": 412,
            "ش": 413,
            "ص": 414,
            "ض": 415,
            "ط": 416,
            "ظ": 417,
            "ع": 418,
            "غ": 419,
            "ـ": 420,
            "ف": 421,
            "ق": 422,
            "ك": 423,
            "ل": 424,
            "م": 425,
            "ن": 426,
            "ه": 427,
            "و": 428,
            "ى": 429,
            "ي": 430,
            "١": 431,
            "٧": 432,
            "پ": 433,
            "چ": 434,
            "ڈ": 435,
            "ڠ": 436,
            "ک": 437,
            "ڬ": 438,
            "گ": 439,
            "ں": 440,
            "ھ": 441,
            "ہ": 442,
            "ی": 443,
            "ۍ": 444,
            "ے": 445,
            "ە": 446,
            "ܐ": 447,
            "ܒ": 448,
            "ܔ": 449,
            "ܕ": 450,
            "ܗ": 451,
            "ܘ": 452,
            "ܙ": 453,
            "ܚ": 454,
            "ܛ": 455,
            "ܝ": 456,
            "ܠ": 457,
            "ܡ": 458,
            "ܢ": 459,
            "ܣ": 460,
            "ܥ": 461,
            "ܦ": 462,
            "ܪ": 463,
            "ܬ": 464,
            "अ": 465,
            "आ": 466,
            "इ": 467,
            "ई": 468,
            "उ": 469,
            "ऋ": 470,
            "ए": 471,
            "ऐ": 472,
            "औ": 473,
            "क": 474,
            "ख": 475,
            "ग": 476,
            "घ": 477,
            "ङ": 478,
            "च": 479,
            "छ": 480,
            "ज": 481,
            "ञ": 482,
            "ट": 483,
            "ठ": 484,
            "ड": 485,
            "ण": 486,
            "त": 487,
            "थ": 488,
            "द": 489,
            "ध": 490,
            "न": 491,
            "प": 492,
            "फ": 493,
            "ब": 494,
            "भ": 495,
            "म": 496,
            "य": 497,
            "र": 498,
            "ल": 499,
            "व": 500,
            "श": 501,
            "ष": 502,
            "स": 503,
            "ह": 504,
            "ऽ": 505,
            "ॐ": 506,
            "।": 507,
            "॥": 508,
            "१": 509,
            "२": 510,
            "३": 511,
            "অ": 512,
            "আ": 513,
            "ই": 514,
            "এ": 515,
            "ক": 516,
            "খ": 517,
            "গ": 518,
            "ঙ": 519,
            "চ": 520,
            "জ": 521,
            "ট": 522,
            "ড": 523,
            "ঢ": 524,
            "ণ": 525,
            "ত": 526,
            "থ": 527,
            "দ": 528,
            "ন": 529,
            "প": 530,
            "ব": 531,
            "ভ": 532,
            "ম": 533,
            "য": 534,
            "র": 535,
            "ল": 536,
            "শ": 537,
            "ষ": 538,
            "স": 539,
            "হ": 540,
            "ৰ": 541,
            "ਅ": 542,
            "ਉ": 543,
            "ਖ": 544,
            "ਘ": 545,
            "ਜ": 546,
            "ਝ": 547,
            "ਦ": 548,
            "ਲ": 549,
            "ਵ": 550,
            "ਸ": 551,
            "ਹ": 552,
            "ખ": 553,
            "ફ": 554,
            "બ": 555,
            "ર": 556,
            "લ": 557,
            "સ": 558,
            "ପ": 559,
            "ର": 560,
            "ஃ": 561,
            "அ": 562,
            "ஆ": 563,
            "இ": 564,
            "ஈ": 565,
            "எ": 566,
            "ஒ": 567,
            "க": 568,
            "ங": 569,
            "ச": 570,
            "ட": 571,
            "ண": 572,
            "த": 573,
            "ந": 574,
            "ன": 575,
            "ப": 576,
            "ம": 577,
            "ய": 578,
            "ர": 579,
            "ற": 580,
            "ல": 581,
            "ள": 582,
            "ழ": 583,
            "வ": 584,
            "ஸ": 585,
            "క": 586,
            "ఖ": 587,
            "గ": 588,
            "జ": 589,
            "ట": 590,
            "ఠ": 591,
            "డ": 592,
            "త": 593,
            "థ": 594,
            "ద": 595,
            "న": 596,
            "ప": 597,
            "బ": 598,
            "భ": 599,
            "మ": 600,
            "య": 601,
            "ర": 602,
            "ల": 603,
            "వ": 604,
            "ష": 605,
            "స": 606,
            "ಕ": 607,
            "ಖ": 608,
            "ಗ": 609,
            "ಚ": 610,
            "ಟ": 611,
            "ಠ": 612,
            "ಡ": 613,
            "ತ": 614,
            "ದ": 615,
            "ನ": 616,
            "ಪ": 617,
            "ಬ": 618,
            "ಭ": 619,
            "ಮ": 620,
            "ಯ": 621,
            "ರ": 622,
            "ಱ": 623,
            "ಲ": 624,
            "ಳ": 625,
            "ವ": 626,
            "ಶ": 627,
            "ಸ": 628,
            "ಹ": 629,
            "ೞ": 630,
            "അ": 631,
            "ങ": 632,
            "ദ": 633,
            "ന": 634,
            "പ": 635,
            "മ": 636,
            "യ": 637,
            "ര": 638,
            "ള": 639,
            "വ": 640,
            "ശ": 641,
            "സ": 642,
            "ഹ": 643,
            "අ": 644,
            "එ": 645,
            "ක": 646,
            "ග": 647,
            "ජ": 648,
            "ත": 649,
            "ධ": 650,
            "න": 651,
            "ප": 652,
            "ම": 653,
            "ය": 654,
            "ර": 655,
            "ල": 656,
            "ව": 657,
            "ශ": 658,
            "හ": 659,
            "ළ": 660,
            "ก": 661,
            "ข": 662,
            "ค": 663,
            "ฆ": 664,
            "ง": 665,
            "จ": 666,
            "ฉ": 667,
            "ช": 668,
            "ซ": 669,
            "ญ": 670,
            "ฎ": 671,
            "ฏ": 672,
            "ฐ": 673,
            "ฑ": 674,
            "ณ": 675,
            "ด": 676,
            "ต": 677,
            "ถ": 678,
            "ท": 679,
            "ธ": 680,
            "น": 681,
            "บ": 682,
            "ป": 683,
            "ผ": 684,
            "ฝ": 685,
            "พ": 686,
            "ฟ": 687,
            "ภ": 688,
            "ม": 689,
            "ย": 690,
            "ร": 691,
            "ฤ": 692,
            "ล": 693,
            "ว": 694,
            "ศ": 695,
            "ษ": 696,
            "ส": 697,
            "ห": 698,
            "ฬ": 699,
            "อ": 700,
            "ฮ": 701,
            "ะ": 702,
            "า": 703,
            "ำ": 704,
            "฿": 705,
            "เ": 706,
            "แ": 707,
            "โ": 708,
            "ใ": 709,
            "ไ": 710,
            "་": 711,
            "༌": 712,
            "།": 713,
            "ཀ": 714,
            "ཁ": 715,
            "ག": 716,
            "ང": 717,
            "ཆ": 718,
            "ཇ": 719,
            "ཐ": 720,
            "ད": 721,
            "ན": 722,
            "པ": 723,
            "བ": 724,
            "མ": 725,
            "ཙ": 726,
            "ཚ": 727,
            "ཛ": 728,
            "འ": 729,
            "ཡ": 730,
            "ར": 731,
            "ལ": 732,
            "ས": 733,
            "ཧ": 734,
            "က": 735,
            "ဂ": 736,
            "င": 737,
            "စ": 738,
            "ဆ": 739,
            "ဇ": 740,
            "တ": 741,
            "န": 742,
            "ပ": 743,
            "ဗ": 744,
            "ဘ": 745,
            "မ": 746,
            "ယ": 747,
            "ရ": 748,
            "လ": 749,
            "ဝ": 750,
            "ဟ": 751,
            "အ": 752,
            "၁": 753,
            "၂": 754,
            "၇": 755,
            "၈": 756,
            "ა": 757,
            "ბ": 758,
            "გ": 759,
            "დ": 760,
            "ე": 761,
            "ვ": 762,
            "ზ": 763,
            "თ": 764,
            "ი": 765,
            "კ": 766,
            "ლ": 767,
            "მ": 768,
            "ნ": 769,
            "ო": 770,
            "პ": 771,
            "ჟ": 772,
            "რ": 773,
            "ს": 774,
            "ტ": 775,
            "უ": 776,
            "ფ": 777,
            "ქ": 778,
            "ღ": 779,
            "ყ": 780,
            "შ": 781,
            "ჩ": 782,
            "ც": 783,
            "ძ": 784,
            "წ": 785,
            "ჭ": 786,
            "ხ": 787,
            "ჯ": 788,
            "ჰ": 789,
            "ჱ": 790,
            "ჲ": 791,
            "ჳ": 792,
            "ჴ": 793,
            "ჵ": 794,
            "ჶ": 795,
            "ჷ": 796,
            "ჸ": 797,
            "ჹ": 798,
            "ჺ": 799,
            "჻": 800,
            "ᄀ": 801,
            "ᄁ": 802,
            "ᄂ": 803,
            "ᄃ": 804,
            "ᄄ": 805,
            "ᄅ": 806,
            "ᄆ": 807,
            "ᄇ": 808,
            "ᄈ": 809,
            "ᄉ": 810,
            "ᄊ": 811,
            "ᄋ": 812,
            "ᄌ": 813,
            "ᄎ": 814,
            "ᄏ": 815,
            "ᄐ": 816,
            "ᄑ": 817,
            "ᄒ": 818,
            "ᅡ": 819,
            "ᅢ": 820,
            "ᅣ": 821,
            "ᅥ": 822,
            "ᅦ": 823,
            "ᅧ": 824,
            "ᅨ": 825,
            "ᅩ": 826,
            "ᅪ": 827,
            "ᅫ": 828,
            "ᅬ": 829,
            "ᅭ": 830,
            "ᅮ": 831,
            "ᅯ": 832,
            "ᅱ": 833,
            "ᅲ": 834,
            "ᅳ": 835,
            "ᅴ": 836,
            "ᅵ": 837,
            "ᆨ": 838,
            "ᆫ": 839,
            "ᆮ": 840,
            "ᆯ": 841,
            "ᆰ": 842,
            "ᆷ": 843,
            "ᆸ": 844,
            "ᆺ": 845,
            "ᆻ": 846,
            "ᆼ": 847,
            "ᇂ": 848,
            "ሀ": 849,
            "ለ": 850,
            "ሐ": 851,
            "ሓ": 852,
            "ሕ": 853,
            "መ": 854,
            "ማ": 855,
            "ሥ": 856,
            "ረ": 857,
            "ር": 858,
            "ሰ": 859,
            "ስ": 860,
            "ቆ": 861,
            "ቈ": 862,
            "በ": 863,
            "ብ": 864,
            "ቲ": 865,
            "ታ": 866,
            "ት": 867,
            "ነ": 868,
            "ና": 869,
            "ን": 870,
            "ኖ": 871,
            "አ": 872,
            "ኢ": 873,
            "እ": 874,
            "ከ": 875,
            "ኲ": 876,
            "ዕ": 877,
            "ዘ": 878,
            "ዛ": 879,
            "የ": 880,
            "ያ": 881,
            "ይ": 882,
            "ዮ": 883,
            "ደ": 884,
            "ድ": 885,
            "ጅ": 886,
            "ገ": 887,
            "ጉ": 888,
            "ጵ": 889,
            "ፈ": 890,
            "ፍ": 891,
            "፡": 892,
            "ᏹ": 893,
            "ᐊ": 894,
            "ᑲ": 895,
            "ᒡ": 896,
            "ᓘ": 897,
            "ᚢ": 898,
            "ᚣ": 899,
            "ᚦ": 900,
            "ᚨ": 901,
            "ᚩ": 902,
            "ᚬ": 903,
            "ᚱ": 904,
            "ᚷ": 905,
            "ᚹ": 906,
            "ᚺ": 907,
            "ᚻ": 908,
            "ᚼ": 909,
            "ᚾ": 910,
            "ᛁ": 911,
            "ᛃ": 912,
            "ᛄ": 913,
            "ᛇ": 914,
            "ᛋ": 915,
            "ᛏ": 916,
            "ᛒ": 917,
            "ᛗ": 918,
            "ᛚ": 919,
            "ᛝ": 920,
            "ᛞ": 921,
            "ᛟ": 922,
            "ᛠ": 923,
            "ក": 924,
            "ខ": 925,
            "គ": 926,
            "ង": 927,
            "ច": 928,
            "ឆ": 929,
            "ជ": 930,
            "ញ": 931,
            "ដ": 932,
            "ឋ": 933,
            "ណ": 934,
            "ត": 935,
            "ថ": 936,
            "ទ": 937,
            "ធ": 938,
            "ន": 939,
            "ប": 940,
            "ព": 941,
            "ភ": 942,
            "ម": 943,
            "យ": 944,
            "រ": 945,
            "ល": 946,
            "វ": 947,
            "ស": 948,
            "ហ": 949,
            "អ": 950,
            "ឥ": 951,
            "ឪ": 952,
            "ឫ": 953,
            "ឯ": 954,
            "ᠠ": 955,
            "ᠣ": 956,
            "ᠨ": 957,
            "ᠪ": 958,
            "ᠮ": 959,
            "ᠯ": 960,
            "ᠰ": 961,
            "ᠴ": 962,
            "ᠵ": 963,
            "ᠸ": 964,
            "ᡝ": 965,
            "ᡠ": 966,
            "ᡥ": 967,
            "ᡨ": 968,
            "ᡳ": 969,
            "ᡴ": 970,
            "ᡵ": 971,
            "ᴰ": 972,
            "ᴷ": 973,
            "ᴺ": 974,
            "ᵀ": 975,
            "ᵊ": 976,
            "ᵑ": 977,
            "ᵗ": 978,
            "ᵘ": 979,
            "ᵝ": 980,
            "ᵻ": 981,
            "ᵿ": 982,
            "ᶑ": 983,
            "ᶢ": 984,
            "ᶦ": 985,
            "ᶴ": 986,
            "ᶷ": 987,
            "᾿": 988,
            "​": 989,
            "‌": 990,
            "‍": 991,
            "‐": 992,
            "‑": 993,
            "‒": 994,
            "–": 995,
            "—": 996,
            "―": 997,
            "‖": 998,
            "‘": 999,
            "’": 1000,
            "‚": 1001,
            "‛": 1002,
            "“": 1003,
            "”": 1004,
            "„": 1005,
            "‟": 1006,
            "†": 1007,
            "‡": 1008,
            "•": 1009,
            "…": 1010,
            "‰": 1011,
            "′": 1012,
            "″": 1013,
            "※": 1014,
            "‼": 1015,
            "‿": 1016,
            "⁄": 1017,
            "⁊": 1018,
            "⁠": 1019,
            "⁡": 1020,
            "⁰": 1021,
            "⁺": 1022,
            "ⁿ": 1023,
            "₁": 1024,
            "₂": 1025,
            "₃": 1026,
            "₄": 1027,
            "₡": 1028,
            "₣": 1029,
            "₤": 1030,
            "₦": 1031,
            "₧": 1032,
            "₨": 1033,
            "₩": 1034,
            "₫": 1035,
            "€": 1036,
            "₱": 1037,
            "₴": 1038,
            "₹": 1039,
            "ℂ": 1040,
            "℃": 1041,
            "ℓ": 1042,
            "ℕ": 1043,
            "№": 1044,
            "ℛ": 1045,
            "ℝ": 1046,
            "℞": 1047,
            "™": 1048,
            "ℤ": 1049,
            "℥": 1050,
            "ℵ": 1051,
            "⅓": 1052,
            "⅔": 1053,
            "⅙": 1054,
            "⅛": 1055,
            "⅜": 1056,
            "⅝": 1057,
            "⅞": 1058,
            "ⅱ": 1059,
            "←": 1060,
            "↑": 1061,
            "→": 1062,
            "↓": 1063,
            "↔": 1064,
            "↗": 1065,
            "↘": 1066,
            "↦": 1067,
            "↪": 1068,
            "↵": 1069,
            "⇄": 1070,
            "⇌": 1071,
            "⇒": 1072,
            "⇪": 1073,
            "∀": 1074,
            "∂": 1075,
            "∅": 1076,
            "∆": 1077,
            "∇": 1078,
            "∈": 1079,
            "∊": 1080,
            "∑": 1081,
            "−": 1082,
            "∕": 1083,
            "∖": 1084,
            "∗": 1085,
            "∘": 1086,
            "√": 1087,
            "∝": 1088,
            "∞": 1089,
            "∣": 1090,
            "∩": 1091,
            "∪": 1092,
            "∫": 1093,
            "∴": 1094,
            "∼": 1095,
            "≈": 1096,
            "≡": 1097,
            "≤": 1098,
            "≥": 1099,
            "≪": 1100,
            "≫": 1101,
            "≲": 1102,
            "⊂": 1103,
            "⊕": 1104,
            "⊗": 1105,
            "⊙": 1106,
            "⊞": 1107,
            "⊢": 1108,
            "⊣": 1109,
            "⊥": 1110,
            "⋅": 1111,
            "⋆": 1112,
            "⋯": 1113,
            "⌊": 1114,
            "⌋": 1115,
            "⌘": 1116,
            "①": 1117,
            "②": 1118,
            "③": 1119,
            "④": 1120,
            "⑤": 1121,
            "⑥": 1122,
            "⑦": 1123,
            "⑧": 1124,
            "─": 1125,
            "█": 1126,
            "▢": 1127,
            "▲": 1128,
            "▼": 1129,
            "○": 1130,
            "●": 1131,
            "◦": 1132,
            "☄": 1133,
            "★": 1134,
            "☆": 1135,
            "☉": 1136,
            "☧": 1137,
            "☫": 1138,
            "☭": 1139,
            "☽": 1140,
            "☾": 1141,
            "♀": 1142,
            "♂": 1143,
            "♄": 1144,
            "♅": 1145,
            "♆": 1146,
            "♇": 1147,
            "♈": 1148,
            "♉": 1149,
            "♠": 1150,
            "♣": 1151,
            "♥": 1152,
            "♦": 1153,
            "♩": 1154,
            "♪": 1155,
            "♭": 1156,
            "♮": 1157,
            "♯": 1158,
            "⚳": 1159,
            "⚴": 1160,
            "⚵": 1161,
            "⛢": 1162,
            "✡": 1163,
            "✱": 1164,
            "❄": 1165,
            "❅": 1166,
            "❆": 1167,
            "❤": 1168,
            "⟦": 1169,
            "⟧": 1170,
            "⟨": 1171,
            "⟩": 1172,
            "⥇": 1173,
            "⩽": 1174,
            "⫶": 1175,
            "ⱱ": 1176,
            "ⲁ": 1177,
            "ⲛ": 1178,
            "ⲥ": 1179,
            "ⲧ": 1180,
            "ⲩ": 1181,
            "ⲫ": 1182,
            "ⲱ": 1183,
            "ⴀ": 1184,
            "ⴂ": 1185,
            "ⴃ": 1186,
            "ⴈ": 1187,
            "ⴌ": 1188,
            "ⴕ": 1189,
            "ⴟ": 1190,
            "ⴰ": 1191,
            "ⴳ": 1192,
            "ⴷ": 1193,
            "ⴻ": 1194,
            "ⴼ": 1195,
            "ⴽ": 1196,
            "ⵃ": 1197,
            "ⵇ": 1198,
            "ⵉ": 1199,
            "ⵍ": 1200,
            "ⵎ": 1201,
            "ⵏ": 1202,
            "ⵓ": 1203,
            "ⵔ": 1204,
            "ⵕ": 1205,
            "ⵖ": 1206,
            "ⵙ": 1207,
            "ⵛ": 1208,
            "ⵜ": 1209,
            "ⵡ": 1210,
            "ⵢ": 1211,
            "ⵣ": 1212,
            "⸨": 1213,
            "⸩": 1214,
            "、": 1215,
            "。": 1216,
            "々": 1217,
            "〈": 1218,
            "〉": 1219,
            "《": 1220,
            "》": 1221,
            "「": 1222,
            "」": 1223,
            "『": 1224,
            "』": 1225,
            "【": 1226,
            "】": 1227,
            "〒": 1228,
            "〜": 1229,
            "あ": 1230,
            "ぃ": 1231,
            "い": 1232,
            "ぅ": 1233,
            "う": 1234,
            "ぇ": 1235,
            "え": 1236,
            "ぉ": 1237,
            "お": 1238,
            "か": 1239,
            "き": 1240,
            "く": 1241,
            "け": 1242,
            "こ": 1243,
            "さ": 1244,
            "し": 1245,
            "す": 1246,
            "せ": 1247,
            "そ": 1248,
            "た": 1249,
            "ち": 1250,
            "っ": 1251,
            "つ": 1252,
            "て": 1253,
            "と": 1254,
            "な": 1255,
            "に": 1256,
            "ぬ": 1257,
            "ね": 1258,
            "の": 1259,
            "は": 1260,
            "ひ": 1261,
            "ふ": 1262,
            "へ": 1263,
            "ほ": 1264,
            "ま": 1265,
            "み": 1266,
            "む": 1267,
            "め": 1268,
            "も": 1269,
            "ゃ": 1270,
            "や": 1271,
            "ゅ": 1272,
            "ゆ": 1273,
            "ょ": 1274,
            "よ": 1275,
            "ら": 1276,
            "り": 1277,
            "る": 1278,
            "れ": 1279,
            "ろ": 1280,
            "わ": 1281,
            "ゑ": 1282,
            "を": 1283,
            "ん": 1284,
            "ァ": 1285,
            "ア": 1286,
            "ィ": 1287,
            "イ": 1288,
            "ゥ": 1289,
            "ウ": 1290,
            "ェ": 1291,
            "エ": 1292,
            "ォ": 1293,
            "オ": 1294,
            "カ": 1295,
            "キ": 1296,
            "ク": 1297,
            "ケ": 1298,
            "コ": 1299,
            "サ": 1300,
            "シ": 1301,
            "ス": 1302,
            "セ": 1303,
            "ソ": 1304,
            "タ": 1305,
            "チ": 1306,
            "ッ": 1307,
            "ツ": 1308,
            "テ": 1309,
            "ト": 1310,
            "ナ": 1311,
            "ニ": 1312,
            "ヌ": 1313,
            "ネ": 1314,
            "ノ": 1315,
            "ハ": 1316,
            "ヒ": 1317,
            "フ": 1318,
            "ヘ": 1319,
            "ホ": 1320,
            "マ": 1321,
            "ミ": 1322,
            "ム": 1323,
            "メ": 1324,
            "モ": 1325,
            "ャ": 1326,
            "ヤ": 1327,
            "ュ": 1328,
            "ユ": 1329,
            "ョ": 1330,
            "ヨ": 1331,
            "ラ": 1332,
            "リ": 1333,
            "ル": 1334,
            "レ": 1335,
            "ロ": 1336,
            "ワ": 1337,
            "ヲ": 1338,
            "ン": 1339,
            "ヶ": 1340,
            "・": 1341,
            "ー": 1342,
            "一": 1343,
            "丁": 1344,
            "七": 1345,
            "万": 1346,
            "丈": 1347,
            "三": 1348,
            "上": 1349,
            "下": 1350,
            "不": 1351,
            "与": 1352,
            "丑": 1353,
            "且": 1354,
            "世": 1355,
            "丘": 1356,
            "丙": 1357,
            "东": 1358,
            "丝": 1359,
            "丞": 1360,
            "両": 1361,
            "丨": 1362,
            "个": 1363,
            "中": 1364,
            "丶": 1365,
            "丸": 1366,
            "丹": 1367,
            "为": 1368,
            "主": 1369,
            "丽": 1370,
            "丿": 1371,
            "乃": 1372,
            "久": 1373,
            "么": 1374,
            "义": 1375,
            "之": 1376,
            "乌": 1377,
            "乎": 1378,
            "乐": 1379,
            "乘": 1380,
            "乙": 1381,
            "乚": 1382,
            "乛": 1383,
            "九": 1384,
            "也": 1385,
            "习": 1386,
            "书": 1387,
            "乩": 1388,
            "买": 1389,
            "乱": 1390,
            "乳": 1391,
            "乾": 1392,
            "亀": 1393,
            "亅": 1394,
            "了": 1395,
            "予": 1396,
            "争": 1397,
            "事": 1398,
            "二": 1399,
            "云": 1400,
            "五": 1401,
            "井": 1402,
            "亚": 1403,
            "些": 1404,
            "亜": 1405,
            "亞": 1406,
            "亡": 1407,
            "交": 1408,
            "亦": 1409,
            "亨": 1410,
            "京": 1411,
            "亮": 1412,
            "亰": 1413,
            "人": 1414,
            "什": 1415,
            "仁": 1416,
            "仇": 1417,
            "今": 1418,
            "介": 1419,
            "仔": 1420,
            "仕": 1421,
            "他": 1422,
            "付": 1423,
            "仙": 1424,
            "代": 1425,
            "令": 1426,
            "以": 1427,
            "仪": 1428,
            "们": 1429,
            "仮": 1430,
            "仰": 1431,
            "仲": 1432,
            "件": 1433,
            "任": 1434,
            "份": 1435,
            "伊": 1436,
            "伏": 1437,
            "伐": 1438,
            "休": 1439,
            "会": 1440,
            "伝": 1441,
            "伟": 1442,
            "传": 1443,
            "伪": 1444,
            "伯": 1445,
            "伴": 1446,
            "伸": 1447,
            "似": 1448,
            "佃": 1449,
            "但": 1450,
            "位": 1451,
            "住": 1452,
            "佐": 1453,
            "佑": 1454,
            "体": 1455,
            "何": 1456,
            "余": 1457,
            "佛": 1458,
            "作": 1459,
            "你": 1460,
            "佳": 1461,
            "併": 1462,
            "使": 1463,
            "來": 1464,
            "例": 1465,
            "侍": 1466,
            "侗": 1467,
            "供": 1468,
            "依": 1469,
            "侠": 1470,
            "侨": 1471,
            "侬": 1472,
            "侯": 1473,
            "係": 1474,
            "促": 1475,
            "俄": 1476,
            "俊": 1477,
            "保": 1478,
            "信": 1479,
            "俭": 1480,
            "修": 1481,
            "俱": 1482,
            "俳": 1483,
            "倉": 1484,
            "個": 1485,
            "們": 1486,
            "候": 1487,
            "借": 1488,
            "倪": 1489,
            "倫": 1490,
            "倭": 1491,
            "偃": 1492,
            "假": 1493,
            "偏": 1494,
            "健": 1495,
            "側": 1496,
            "偵": 1497,
            "偽": 1498,
            "傀": 1499,
            "傅": 1500,
            "傑": 1501,
            "傘": 1502,
            "備": 1503,
            "催": 1504,
            "傭": 1505,
            "傳": 1506,
            "傷": 1507,
            "像": 1508,
            "僑": 1509,
            "僕": 1510,
            "僧": 1511,
            "儀": 1512,
            "億": 1513,
            "儒": 1514,
            "儚": 1515,
            "儡": 1516,
            "優": 1517,
            "儿": 1518,
            "允": 1519,
            "元": 1520,
            "充": 1521,
            "兆": 1522,
            "先": 1523,
            "光": 1524,
            "克": 1525,
            "免": 1526,
            "兒": 1527,
            "兔": 1528,
            "兜": 1529,
            "入": 1530,
            "內": 1531,
            "全": 1532,
            "兩": 1533,
            "八": 1534,
            "公": 1535,
            "六": 1536,
            "兰": 1537,
            "共": 1538,
            "关": 1539,
            "兵": 1540,
            "其": 1541,
            "具": 1542,
            "典": 1543,
            "养": 1544,
            "冀": 1545,
            "内": 1546,
            "円": 1547,
            "冉": 1548,
            "册": 1549,
            "再": 1550,
            "冒": 1551,
            "写": 1552,
            "军": 1553,
            "冠": 1554,
            "冥": 1555,
            "冫": 1556,
            "冬": 1557,
            "冯": 1558,
            "决": 1559,
            "冴": 1560,
            "冶": 1561,
            "冷": 1562,
            "净": 1563,
            "准": 1564,
            "凌": 1565,
            "凤": 1566,
            "処": 1567,
            "凪": 1568,
            "凯": 1569,
            "凰": 1570,
            "凱": 1571,
            "凶": 1572,
            "凹": 1573,
            "出": 1574,
            "刀": 1575,
            "刃": 1576,
            "分": 1577,
            "切": 1578,
            "刊": 1579,
            "划": 1580,
            "列": 1581,
            "刘": 1582,
            "初": 1583,
            "判": 1584,
            "別": 1585,
            "利": 1586,
            "别": 1587,
            "到": 1588,
            "制": 1589,
            "刷": 1590,
            "券": 1591,
            "刹": 1592,
            "刺": 1593,
            "刻": 1594,
            "則": 1595,
            "前": 1596,
            "剑": 1597,
            "剛": 1598,
            "剣": 1599,
            "剧": 1600,
            "剩": 1601,
            "副": 1602,
            "割": 1603,
            "創": 1604,
            "劃": 1605,
            "劇": 1606,
            "劉": 1607,
            "劍": 1608,
            "力": 1609,
            "办": 1610,
            "功": 1611,
            "加": 1612,
            "劣": 1613,
            "动": 1614,
            "助": 1615,
            "劳": 1616,
            "勃": 1617,
            "勅": 1618,
            "勇": 1619,
            "勒": 1620,
            "動": 1621,
            "勘": 1622,
            "務": 1623,
            "勝": 1624,
            "勞": 1625,
            "勢": 1626,
            "勳": 1627,
            "勾": 1628,
            "包": 1629,
            "化": 1630,
            "北": 1631,
            "匠": 1632,
            "匹": 1633,
            "区": 1634,
            "医": 1635,
            "區": 1636,
            "十": 1637,
            "千": 1638,
            "升": 1639,
            "午": 1640,
            "半": 1641,
            "华": 1642,
            "协": 1643,
            "卐": 1644,
            "卒": 1645,
            "卓": 1646,
            "協": 1647,
            "单": 1648,
            "卖": 1649,
            "南": 1650,
            "博": 1651,
            "卜": 1652,
            "占": 1653,
            "卡": 1654,
            "卢": 1655,
            "卦": 1656,
            "卫": 1657,
            "印": 1658,
            "危": 1659,
            "即": 1660,
            "却": 1661,
            "卸": 1662,
            "卿": 1663,
            "厂": 1664,
            "厄": 1665,
            "历": 1666,
            "厘": 1667,
            "厚": 1668,
            "原": 1669,
            "厥": 1670,
            "厦": 1671,
            "厩": 1672,
            "去": 1673,
            "县": 1674,
            "参": 1675,
            "參": 1676,
            "叉": 1677,
            "及": 1678,
            "友": 1679,
            "双": 1680,
            "反": 1681,
            "収": 1682,
            "发": 1683,
            "叔": 1684,
            "取": 1685,
            "受": 1686,
            "变": 1687,
            "叛": 1688,
            "叠": 1689,
            "叡": 1690,
            "叢": 1691,
            "口": 1692,
            "古": 1693,
            "句": 1694,
            "只": 1695,
            "叫": 1696,
            "召": 1697,
            "可": 1698,
            "台": 1699,
            "史": 1700,
            "右": 1701,
            "叶": 1702,
            "号": 1703,
            "司": 1704,
            "合": 1705,
            "吉": 1706,
            "同": 1707,
            "名": 1708,
            "后": 1709,
            "向": 1710,
            "吕": 1711,
            "君": 1712,
            "吞": 1713,
            "吟": 1714,
            "吧": 1715,
            "启": 1716,
            "吳": 1717,
            "吴": 1718,
            "吸": 1719,
            "吹": 1720,
            "吾": 1721,
            "呂": 1722,
            "呉": 1723,
            "告": 1724,
            "周": 1725,
            "呪": 1726,
            "味": 1727,
            "呼": 1728,
            "命": 1729,
            "咆": 1730,
            "和": 1731,
            "咖": 1732,
            "咙": 1733,
            "咫": 1734,
            "咲": 1735,
            "咸": 1736,
            "哀": 1737,
            "品": 1738,
            "哈": 1739,
            "哉": 1740,
            "响": 1741,
            "員": 1742,
            "哥": 1743,
            "哮": 1744,
            "哲": 1745,
            "唄": 1746,
            "唐": 1747,
            "唯": 1748,
            "唱": 1749,
            "商": 1750,
            "問": 1751,
            "啓": 1752,
            "啟": 1753,
            "啡": 1754,
            "善": 1755,
            "喇": 1756,
            "喋": 1757,
            "喚": 1758,
            "喜": 1759,
            "喝": 1760,
            "喬": 1761,
            "嘉": 1762,
            "嘘": 1763,
            "噛": 1764,
            "器": 1765,
            "嚣": 1766,
            "嚴": 1767,
            "囁": 1768,
            "囂": 1769,
            "囃": 1770,
            "囚": 1771,
            "四": 1772,
            "回": 1773,
            "因": 1774,
            "团": 1775,
            "団": 1776,
            "図": 1777,
            "国": 1778,
            "图": 1779,
            "圈": 1780,
            "國": 1781,
            "圍": 1782,
            "圏": 1783,
            "園": 1784,
            "圓": 1785,
            "圖": 1786,
            "土": 1787,
            "圣": 1788,
            "圧": 1789,
            "在": 1790,
            "地": 1791,
            "圻": 1792,
            "坂": 1793,
            "均": 1794,
            "坊": 1795,
            "坑": 1796,
            "块": 1797,
            "坚": 1798,
            "坝": 1799,
            "坡": 1800,
            "坤": 1801,
            "坪": 1802,
            "型": 1803,
            "垣": 1804,
            "城": 1805,
            "埔": 1806,
            "域": 1807,
            "執": 1808,
            "培": 1809,
            "基": 1810,
            "堀": 1811,
            "堂": 1812,
            "堅": 1813,
            "堆": 1814,
            "堡": 1815,
            "堤": 1816,
            "堯": 1817,
            "報": 1818,
            "場": 1819,
            "塊": 1820,
            "塔": 1821,
            "塘": 1822,
            "塚": 1823,
            "塞": 1824,
            "塩": 1825,
            "填": 1826,
            "塵": 1827,
            "境": 1828,
            "墓": 1829,
            "墙": 1830,
            "增": 1831,
            "壁": 1832,
            "壌": 1833,
            "壓": 1834,
            "壟": 1835,
            "壤": 1836,
            "士": 1837,
            "壬": 1838,
            "壮": 1839,
            "壯": 1840,
            "声": 1841,
            "壱": 1842,
            "売": 1843,
            "壳": 1844,
            "壷": 1845,
            "壽": 1846,
            "处": 1847,
            "备": 1848,
            "変": 1849,
            "复": 1850,
            "夏": 1851,
            "夕": 1852,
            "外": 1853,
            "多": 1854,
            "夜": 1855,
            "够": 1856,
            "夢": 1857,
            "夤": 1858,
            "大": 1859,
            "天": 1860,
            "太": 1861,
            "夫": 1862,
            "央": 1863,
            "失": 1864,
            "头": 1865,
            "夷": 1866,
            "奇": 1867,
            "奈": 1868,
            "奉": 1869,
            "奎": 1870,
            "奏": 1871,
            "奐": 1872,
            "契": 1873,
            "奔": 1874,
            "套": 1875,
            "奥": 1876,
            "奧": 1877,
            "奪": 1878,
            "女": 1879,
            "奴": 1880,
            "好": 1881,
            "如": 1882,
            "妃": 1883,
            "妇": 1884,
            "妍": 1885,
            "妖": 1886,
            "妙": 1887,
            "妮": 1888,
            "妹": 1889,
            "妻": 1890,
            "姉": 1891,
            "姊": 1892,
            "始": 1893,
            "姑": 1894,
            "委": 1895,
            "姚": 1896,
            "姥": 1897,
            "姦": 1898,
            "姫": 1899,
            "姬": 1900,
            "姿": 1901,
            "威": 1902,
            "娘": 1903,
            "娜": 1904,
            "婁": 1905,
            "婆": 1906,
            "婚": 1907,
            "婷": 1908,
            "嫁": 1909,
            "嬢": 1910,
            "嬴": 1911,
            "子": 1912,
            "孔": 1913,
            "字": 1914,
            "存": 1915,
            "孙": 1916,
            "孛": 1917,
            "孝": 1918,
            "孟": 1919,
            "季": 1920,
            "孤": 1921,
            "学": 1922,
            "孩": 1923,
            "孫": 1924,
            "孵": 1925,
            "學": 1926,
            "宁": 1927,
            "宅": 1928,
            "宇": 1929,
            "守": 1930,
            "安": 1931,
            "宋": 1932,
            "完": 1933,
            "宏": 1934,
            "宗": 1935,
            "官": 1936,
            "宙": 1937,
            "定": 1938,
            "宜": 1939,
            "宝": 1940,
            "实": 1941,
            "実": 1942,
            "客": 1943,
            "宣": 1944,
            "室": 1945,
            "宫": 1946,
            "宮": 1947,
            "宴": 1948,
            "宵": 1949,
            "家": 1950,
            "宸": 1951,
            "容": 1952,
            "宿": 1953,
            "寂": 1954,
            "寄": 1955,
            "密": 1956,
            "寇": 1957,
            "富": 1958,
            "寔": 1959,
            "寗": 1960,
            "寛": 1961,
            "寝": 1962,
            "寞": 1963,
            "察": 1964,
            "寧": 1965,
            "寨": 1966,
            "審": 1967,
            "寬": 1968,
            "寵": 1969,
            "寶": 1970,
            "寸": 1971,
            "对": 1972,
            "寺": 1973,
            "寻": 1974,
            "対": 1975,
            "寿": 1976,
            "封": 1977,
            "射": 1978,
            "将": 1979,
            "將": 1980,
            "尉": 1981,
            "尊": 1982,
            "尋": 1983,
            "對": 1984,
            "導": 1985,
            "小": 1986,
            "少": 1987,
            "尔": 1988,
            "尚": 1989,
            "尧": 1990,
            "就": 1991,
            "尸": 1992,
            "尹": 1993,
            "尺": 1994,
            "尼": 1995,
            "尽": 1996,
            "尾": 1997,
            "局": 1998,
            "居": 1999,
            "届": 2000,
            "屋": 2001,
            "屍": 2002,
            "屑": 2003,
            "展": 2004,
            "屠": 2005,
            "層": 2006,
            "屬": 2007,
            "屯": 2008,
            "山": 2009,
            "屿": 2010,
            "岐": 2011,
            "岑": 2012,
            "岚": 2013,
            "岛": 2014,
            "岡": 2015,
            "岩": 2016,
            "岬": 2017,
            "岭": 2018,
            "岳": 2019,
            "岸": 2020,
            "峰": 2021,
            "島": 2022,
            "崇": 2023,
            "崎": 2024,
            "崔": 2025,
            "崖": 2026,
            "嵐": 2027,
            "嶋": 2028,
            "嶺": 2029,
            "嶼": 2030,
            "巂": 2031,
            "巖": 2032,
            "川": 2033,
            "州": 2034,
            "巡": 2035,
            "工": 2036,
            "左": 2037,
            "巨": 2038,
            "巫": 2039,
            "差": 2040,
            "己": 2041,
            "巳": 2042,
            "巴": 2043,
            "巻": 2044,
            "币": 2045,
            "市": 2046,
            "布": 2047,
            "帆": 2048,
            "师": 2049,
            "希": 2050,
            "帕": 2051,
            "帖": 2052,
            "帝": 2053,
            "帥": 2054,
            "带": 2055,
            "師": 2056,
            "帮": 2057,
            "帰": 2058,
            "帶": 2059,
            "常": 2060,
            "幕": 2061,
            "幡": 2062,
            "幣": 2063,
            "干": 2064,
            "平": 2065,
            "年": 2066,
            "幸": 2067,
            "幻": 2068,
            "幽": 2069,
            "广": 2070,
            "庁": 2071,
            "広": 2072,
            "庄": 2073,
            "庆": 2074,
            "庇": 2075,
            "序": 2076,
            "库": 2077,
            "底": 2078,
            "庖": 2079,
            "店": 2080,
            "庙": 2081,
            "庚": 2082,
            "府": 2083,
            "度": 2084,
            "座": 2085,
            "庫": 2086,
            "庭": 2087,
            "庵": 2088,
            "康": 2089,
            "廉": 2090,
            "廊": 2091,
            "廖": 2092,
            "廟": 2093,
            "廣": 2094,
            "廬": 2095,
            "延": 2096,
            "廷": 2097,
            "建": 2098,
            "廻": 2099,
            "廿": 2100,
            "开": 2101,
            "弁": 2102,
            "式": 2103,
            "弐": 2104,
            "弓": 2105,
            "弔": 2106,
            "引": 2107,
            "弘": 2108,
            "弟": 2109,
            "张": 2110,
            "弥": 2111,
            "弦": 2112,
            "弧": 2113,
            "弱": 2114,
            "張": 2115,
            "強": 2116,
            "弹": 2117,
            "强": 2118,
            "弾": 2119,
            "彌": 2120,
            "当": 2121,
            "录": 2122,
            "彖": 2123,
            "彙": 2124,
            "形": 2125,
            "彦": 2126,
            "彩": 2127,
            "彪": 2128,
            "彬": 2129,
            "彭": 2130,
            "影": 2131,
            "役": 2132,
            "彼": 2133,
            "征": 2134,
            "径": 2135,
            "待": 2136,
            "律": 2137,
            "後": 2138,
            "徐": 2139,
            "徒": 2140,
            "得": 2141,
            "從": 2142,
            "御": 2143,
            "復": 2144,
            "微": 2145,
            "徳": 2146,
            "德": 2147,
            "徹": 2148,
            "徽": 2149,
            "心": 2150,
            "必": 2151,
            "忍": 2152,
            "志": 2153,
            "忘": 2154,
            "応": 2155,
            "忠": 2156,
            "快": 2157,
            "念": 2158,
            "怀": 2159,
            "怎": 2160,
            "怒": 2161,
            "怖": 2162,
            "思": 2163,
            "怡": 2164,
            "急": 2165,
            "性": 2166,
            "怨": 2167,
            "怪": 2168,
            "总": 2169,
            "恆": 2170,
            "恋": 2171,
            "恐": 2172,
            "恒": 2173,
            "恢": 2174,
            "恥": 2175,
            "恩": 2176,
            "恭": 2177,
            "息": 2178,
            "恵": 2179,
            "恼": 2180,
            "悔": 2181,
            "悟": 2182,
            "悠": 2183,
            "悦": 2184,
            "悪": 2185,
            "悫": 2186,
            "悲": 2187,
            "悼": 2188,
            "情": 2189,
            "惑": 2190,
            "惟": 2191,
            "惠": 2192,
            "惡": 2193,
            "想": 2194,
            "愁": 2195,
            "愍": 2196,
            "意": 2197,
            "愚": 2198,
            "愛": 2199,
            "感": 2200,
            "愽": 2201,
            "慈": 2202,
            "態": 2203,
            "慎": 2204,
            "慧": 2205,
            "慰": 2206,
            "慶": 2207,
            "憂": 2208,
            "憎": 2209,
            "憑": 2210,
            "憲": 2211,
            "憶": 2212,
            "應": 2213,
            "懍": 2214,
            "懷": 2215,
            "戈": 2216,
            "戊": 2217,
            "戎": 2218,
            "成": 2219,
            "我": 2220,
            "战": 2221,
            "戦": 2222,
            "戯": 2223,
            "戰": 2224,
            "戴": 2225,
            "户": 2226,
            "戸": 2227,
            "房": 2228,
            "所": 2229,
            "扁": 2230,
            "扇": 2231,
            "扈": 2232,
            "扉": 2233,
            "手": 2234,
            "才": 2235,
            "打": 2236,
            "托": 2237,
            "扶": 2238,
            "找": 2239,
            "承": 2240,
            "技": 2241,
            "抄": 2242,
            "抓": 2243,
            "投": 2244,
            "抜": 2245,
            "択": 2246,
            "护": 2247,
            "报": 2248,
            "披": 2249,
            "抱": 2250,
            "抵": 2251,
            "担": 2252,
            "拉": 2253,
            "拍": 2254,
            "拏": 2255,
            "拐": 2256,
            "拖": 2257,
            "拘": 2258,
            "招": 2259,
            "拜": 2260,
            "拟": 2261,
            "拥": 2262,
            "括": 2263,
            "拱": 2264,
            "拳": 2265,
            "拾": 2266,
            "持": 2267,
            "挂": 2268,
            "指": 2269,
            "挑": 2270,
            "挥": 2271,
            "振": 2272,
            "据": 2273,
            "捷": 2274,
            "授": 2275,
            "掛": 2276,
            "採": 2277,
            "探": 2278,
            "控": 2279,
            "掲": 2280,
            "描": 2281,
            "提": 2282,
            "揚": 2283,
            "換": 2284,
            "援": 2285,
            "揺": 2286,
            "摂": 2287,
            "摩": 2288,
            "摸": 2289,
            "撃": 2290,
            "撒": 2291,
            "撞": 2292,
            "播": 2293,
            "撲": 2294,
            "操": 2295,
            "攝": 2296,
            "支": 2297,
            "收": 2298,
            "改": 2299,
            "攻": 2300,
            "放": 2301,
            "政": 2302,
            "故": 2303,
            "敏": 2304,
            "救": 2305,
            "教": 2306,
            "敢": 2307,
            "散": 2308,
            "敦": 2309,
            "敬": 2310,
            "数": 2311,
            "敵": 2312,
            "敷": 2313,
            "數": 2314,
            "文": 2315,
            "斉": 2316,
            "斎": 2317,
            "斗": 2318,
            "料": 2319,
            "斜": 2320,
            "斤": 2321,
            "斩": 2322,
            "斬": 2323,
            "断": 2324,
            "斯": 2325,
            "新": 2326,
            "方": 2327,
            "於": 2328,
            "施": 2329,
            "旅": 2330,
            "旋": 2331,
            "族": 2332,
            "旗": 2333,
            "无": 2334,
            "日": 2335,
            "旦": 2336,
            "旧": 2337,
            "早": 2338,
            "旭": 2339,
            "时": 2340,
            "旺": 2341,
            "昂": 2342,
            "昇": 2343,
            "昌": 2344,
            "明": 2345,
            "昏": 2346,
            "易": 2347,
            "昔": 2348,
            "星": 2349,
            "映": 2350,
            "春": 2351,
            "昭": 2352,
            "是": 2353,
            "昼": 2354,
            "時": 2355,
            "晉": 2356,
            "晋": 2357,
            "晒": 2358,
            "普": 2359,
            "景": 2360,
            "晴": 2361,
            "晶": 2362,
            "智": 2363,
            "暁": 2364,
            "暂": 2365,
            "暖": 2366,
            "暗": 2367,
            "暦": 2368,
            "暮": 2369,
            "暴": 2370,
            "曆": 2371,
            "曜": 2372,
            "曦": 2373,
            "曲": 2374,
            "更": 2375,
            "書": 2376,
            "曹": 2377,
            "曼": 2378,
            "曾": 2379,
            "最": 2380,
            "會": 2381,
            "月": 2382,
            "有": 2383,
            "朋": 2384,
            "服": 2385,
            "朏": 2386,
            "朔": 2387,
            "朗": 2388,
            "望": 2389,
            "朝": 2390,
            "期": 2391,
            "朧": 2392,
            "木": 2393,
            "未": 2394,
            "末": 2395,
            "本": 2396,
            "札": 2397,
            "朱": 2398,
            "朴": 2399,
            "朵": 2400,
            "机": 2401,
            "朽": 2402,
            "杀": 2403,
            "杂": 2404,
            "权": 2405,
            "李": 2406,
            "杏": 2407,
            "材": 2408,
            "村": 2409,
            "杖": 2410,
            "杜": 2411,
            "束": 2412,
            "条": 2413,
            "来": 2414,
            "杨": 2415,
            "杯": 2416,
            "東": 2417,
            "杲": 2418,
            "松": 2419,
            "板": 2420,
            "极": 2421,
            "析": 2422,
            "林": 2423,
            "枚": 2424,
            "果": 2425,
            "枝": 2426,
            "枭": 2427,
            "枯": 2428,
            "架": 2429,
            "柆": 2430,
            "柏": 2431,
            "柔": 2432,
            "柚": 2433,
            "柩": 2434,
            "柱": 2435,
            "柳": 2436,
            "柴": 2437,
            "査": 2438,
            "栄": 2439,
            "标": 2440,
            "栈": 2441,
            "树": 2442,
            "栖": 2443,
            "栗": 2444,
            "栞": 2445,
            "校": 2446,
            "株": 2447,
            "样": 2448,
            "核": 2449,
            "根": 2450,
            "格": 2451,
            "栽": 2452,
            "栾": 2453,
            "桀": 2454,
            "桂": 2455,
            "桃": 2456,
            "案": 2457,
            "桎": 2458,
            "桐": 2459,
            "桑": 2460,
            "桓": 2461,
            "桜": 2462,
            "桥": 2463,
            "桧": 2464,
            "梁": 2465,
            "梅": 2466,
            "梏": 2467,
            "梓": 2468,
            "條": 2469,
            "梦": 2470,
            "梨": 2471,
            "梭": 2472,
            "梯": 2473,
            "械": 2474,
            "梵": 2475,
            "梶": 2476,
            "棋": 2477,
            "棍": 2478,
            "棗": 2479,
            "棘": 2480,
            "棚": 2481,
            "棟": 2482,
            "森": 2483,
            "棲": 2484,
            "棵": 2485,
            "棺": 2486,
            "椅": 2487,
            "植": 2488,
            "椎": 2489,
            "椒": 2490,
            "椛": 2491,
            "検": 2492,
            "椰": 2493,
            "椿": 2494,
            "楊": 2495,
            "楚": 2496,
            "楠": 2497,
            "業": 2498,
            "楯": 2499,
            "極": 2500,
            "楼": 2501,
            "楽": 2502,
            "概": 2503,
            "榆": 2504,
            "榊": 2505,
            "榔": 2506,
            "榛": 2507,
            "榮": 2508,
            "榴": 2509,
            "槐": 2510,
            "様": 2511,
            "槤": 2512,
            "槻": 2513,
            "樂": 2514,
            "樉": 2515,
            "樊": 2516,
            "樓": 2517,
            "樗": 2518,
            "標": 2519,
            "樛": 2520,
            "模": 2521,
            "権": 2522,
            "横": 2523,
            "樱": 2524,
            "樸": 2525,
            "樹": 2526,
            "橋": 2527,
            "橘": 2528,
            "橚": 2529,
            "機": 2530,
            "橫": 2531,
            "橿": 2532,
            "檀": 2533,
            "檜": 2534,
            "檳": 2535,
            "檻": 2536,
            "櫓": 2537,
            "櫻": 2538,
            "權": 2539,
            "欒": 2540,
            "欠": 2541,
            "次": 2542,
            "欣": 2543,
            "欲": 2544,
            "欽": 2545,
            "歌": 2546,
            "歓": 2547,
            "歡": 2548,
            "止": 2549,
            "正": 2550,
            "步": 2551,
            "武": 2552,
            "歩": 2553,
            "歪": 2554,
            "歲": 2555,
            "歳": 2556,
            "歴": 2557,
            "歷": 2558,
            "歸": 2559,
            "死": 2560,
            "殊": 2561,
            "残": 2562,
            "段": 2563,
            "殺": 2564,
            "殻": 2565,
            "殿": 2566,
            "毅": 2567,
            "母": 2568,
            "毎": 2569,
            "每": 2570,
            "比": 2571,
            "毕": 2572,
            "毘": 2573,
            "毛": 2574,
            "毫": 2575,
            "毬": 2576,
            "氏": 2577,
            "民": 2578,
            "气": 2579,
            "気": 2580,
            "氣": 2581,
            "水": 2582,
            "氷": 2583,
            "永": 2584,
            "氾": 2585,
            "汇": 2586,
            "汉": 2587,
            "汐": 2588,
            "汗": 2589,
            "汝": 2590,
            "江": 2591,
            "池": 2592,
            "汤": 2593,
            "汪": 2594,
            "汰": 2595,
            "汶": 2596,
            "決": 2597,
            "汽": 2598,
            "沂": 2599,
            "沃": 2600,
            "沈": 2601,
            "沉": 2602,
            "沌": 2603,
            "沐": 2604,
            "沒": 2605,
            "沖": 2606,
            "沙": 2607,
            "沛": 2608,
            "没": 2609,
            "沢": 2610,
            "沫": 2611,
            "河": 2612,
            "沸": 2613,
            "油": 2614,
            "治": 2615,
            "沼": 2616,
            "沽": 2617,
            "泉": 2618,
            "泊": 2619,
            "法": 2620,
            "泗": 2621,
            "泡": 2622,
            "波": 2623,
            "泣": 2624,
            "泥": 2625,
            "注": 2626,
            "泰": 2627,
            "泾": 2628,
            "洁": 2629,
            "洋": 2630,
            "洛": 2631,
            "洞": 2632,
            "津": 2633,
            "洪": 2634,
            "洲": 2635,
            "活": 2636,
            "派": 2637,
            "流": 2638,
            "浅": 2639,
            "浙": 2640,
            "浚": 2641,
            "浜": 2642,
            "浦": 2643,
            "浩": 2644,
            "浪": 2645,
            "浮": 2646,
            "海": 2647,
            "消": 2648,
            "涙": 2649,
            "润": 2650,
            "涵": 2651,
            "涼": 2652,
            "淇": 2653,
            "淑": 2654,
            "淘": 2655,
            "淡": 2656,
            "淨": 2657,
            "深": 2658,
            "淳": 2659,
            "淵": 2660,
            "淹": 2661,
            "添": 2662,
            "清": 2663,
            "渊": 2664,
            "渚": 2665,
            "減": 2666,
            "渠": 2667,
            "渡": 2668,
            "渣": 2669,
            "渥": 2670,
            "渦": 2671,
            "温": 2672,
            "測": 2673,
            "港": 2674,
            "游": 2675,
            "渾": 2676,
            "湊": 2677,
            "湖": 2678,
            "湯": 2679,
            "湾": 2680,
            "満": 2681,
            "源": 2682,
            "準": 2683,
            "溜": 2684,
            "溢": 2685,
            "溪": 2686,
            "溫": 2687,
            "溶": 2688,
            "滅": 2689,
            "滋": 2690,
            "滑": 2691,
            "滨": 2692,
            "滿": 2693,
            "漁": 2694,
            "漂": 2695,
            "漆": 2696,
            "漏": 2697,
            "漠": 2698,
            "漢": 2699,
            "漫": 2700,
            "漳": 2701,
            "漸": 2702,
            "潘": 2703,
            "潜": 2704,
            "潤": 2705,
            "澄": 2706,
            "澤": 2707,
            "澪": 2708,
            "激": 2709,
            "濃": 2710,
            "濞": 2711,
            "濟": 2712,
            "瀛": 2713,
            "瀬": 2714,
            "灣": 2715,
            "火": 2716,
            "灯": 2717,
            "灰": 2718,
            "灵": 2719,
            "灶": 2720,
            "灼": 2721,
            "災": 2722,
            "灾": 2723,
            "炎": 2724,
            "炬": 2725,
            "炮": 2726,
            "炯": 2727,
            "炷": 2728,
            "炸": 2729,
            "点": 2730,
            "為": 2731,
            "炼": 2732,
            "烈": 2733,
            "烏": 2734,
            "烙": 2735,
            "烟": 2736,
            "烦": 2737,
            "烧": 2738,
            "焉": 2739,
            "焔": 2740,
            "無": 2741,
            "焦": 2742,
            "然": 2743,
            "焼": 2744,
            "煌": 2745,
            "煙": 2746,
            "煜": 2747,
            "照": 2748,
            "煩": 2749,
            "煮": 2750,
            "熊": 2751,
            "熔": 2752,
            "熙": 2753,
            "熟": 2754,
            "熱": 2755,
            "燃": 2756,
            "燈": 2757,
            "燕": 2758,
            "營": 2759,
            "爆": 2760,
            "爪": 2761,
            "爭": 2762,
            "爱": 2763,
            "爲": 2764,
            "爵": 2765,
            "父": 2766,
            "爺": 2767,
            "爻": 2768,
            "爽": 2769,
            "爾": 2770,
            "片": 2771,
            "版": 2772,
            "牌": 2773,
            "牙": 2774,
            "牛": 2775,
            "牡": 2776,
            "牢": 2777,
            "牧": 2778,
            "物": 2779,
            "牵": 2780,
            "特": 2781,
            "犖": 2782,
            "犬": 2783,
            "犯": 2784,
            "狀": 2785,
            "狂": 2786,
            "狐": 2787,
            "狗": 2788,
            "狛": 2789,
            "狡": 2790,
            "狩": 2791,
            "独": 2792,
            "狭": 2793,
            "狱": 2794,
            "狸": 2795,
            "狼": 2796,
            "猛": 2797,
            "猩": 2798,
            "猪": 2799,
            "猫": 2800,
            "献": 2801,
            "猿": 2802,
            "獄": 2803,
            "獅": 2804,
            "獣": 2805,
            "獵": 2806,
            "獻": 2807,
            "玄": 2808,
            "玉": 2809,
            "王": 2810,
            "玖": 2811,
            "玩": 2812,
            "玲": 2813,
            "珂": 2814,
            "珍": 2815,
            "珙": 2816,
            "珠": 2817,
            "現": 2818,
            "球": 2819,
            "理": 2820,
            "琦": 2821,
            "琪": 2822,
            "琬": 2823,
            "琮": 2824,
            "琴": 2825,
            "瑋": 2826,
            "瑙": 2827,
            "瑜": 2828,
            "瑞": 2829,
            "瑠": 2830,
            "瑣": 2831,
            "瑪": 2832,
            "瑾": 2833,
            "璉": 2834,
            "環": 2835,
            "璽": 2836,
            "瓊": 2837,
            "瓜": 2838,
            "瓢": 2839,
            "瓦": 2840,
            "瓩": 2841,
            "瓷": 2842,
            "甘": 2843,
            "甜": 2844,
            "生": 2845,
            "產": 2846,
            "産": 2847,
            "用": 2848,
            "甫": 2849,
            "田": 2850,
            "由": 2851,
            "甲": 2852,
            "申": 2853,
            "男": 2854,
            "町": 2855,
            "画": 2856,
            "甽": 2857,
            "界": 2858,
            "畑": 2859,
            "留": 2860,
            "畜": 2861,
            "畢": 2862,
            "略": 2863,
            "番": 2864,
            "畫": 2865,
            "異": 2866,
            "疆": 2867,
            "疾": 2868,
            "病": 2869,
            "症": 2870,
            "痘": 2871,
            "痛": 2872,
            "痴": 2873,
            "瘡": 2874,
            "瘤": 2875,
            "発": 2876,
            "登": 2877,
            "發": 2878,
            "白": 2879,
            "百": 2880,
            "的": 2881,
            "皇": 2882,
            "皙": 2883,
            "皮": 2884,
            "皿": 2885,
            "盆": 2886,
            "盈": 2887,
            "益": 2888,
            "盏": 2889,
            "盐": 2890,
            "监": 2891,
            "盒": 2892,
            "盗": 2893,
            "盘": 2894,
            "盛": 2895,
            "盟": 2896,
            "監": 2897,
            "盤": 2898,
            "盧": 2899,
            "目": 2900,
            "直": 2901,
            "相": 2902,
            "盼": 2903,
            "省": 2904,
            "看": 2905,
            "県": 2906,
            "眞": 2907,
            "真": 2908,
            "眼": 2909,
            "着": 2910,
            "督": 2911,
            "瞬": 2912,
            "瞳": 2913,
            "矢": 2914,
            "知": 2915,
            "矩": 2916,
            "短": 2917,
            "矮": 2918,
            "矯": 2919,
            "石": 2920,
            "砂": 2921,
            "砍": 2922,
            "研": 2923,
            "砖": 2924,
            "砲": 2925,
            "破": 2926,
            "硕": 2927,
            "硝": 2928,
            "硨": 2929,
            "碍": 2930,
            "碗": 2931,
            "碩": 2932,
            "確": 2933,
            "碼": 2934,
            "磁": 2935,
            "磅": 2936,
            "磐": 2937,
            "磨": 2938,
            "磯": 2939,
            "磲": 2940,
            "礁": 2941,
            "礎": 2942,
            "礮": 2943,
            "示": 2944,
            "礼": 2945,
            "社": 2946,
            "祀": 2947,
            "祈": 2948,
            "祐": 2949,
            "祖": 2950,
            "祚": 2951,
            "神": 2952,
            "祠": 2953,
            "祥": 2954,
            "票": 2955,
            "祭": 2956,
            "祺": 2957,
            "祿": 2958,
            "禁": 2959,
            "禄": 2960,
            "禎": 2961,
            "福": 2962,
            "禦": 2963,
            "禮": 2964,
            "禰": 2965,
            "禺": 2966,
            "禾": 2967,
            "秀": 2968,
            "私": 2969,
            "秋": 2970,
            "科": 2971,
            "秒": 2972,
            "秘": 2973,
            "租": 2974,
            "秤": 2975,
            "秦": 2976,
            "移": 2977,
            "程": 2978,
            "稔": 2979,
            "稚": 2980,
            "種": 2981,
            "稲": 2982,
            "稷": 2983,
            "稽": 2984,
            "穂": 2985,
            "穌": 2986,
            "積": 2987,
            "穎": 2988,
            "穗": 2989,
            "穢": 2990,
            "究": 2991,
            "空": 2992,
            "突": 2993,
            "窓": 2994,
            "窗": 2995,
            "窟": 2996,
            "竇": 2997,
            "立": 2998,
            "站": 2999,
            "竜": 3000,
            "章": 3001,
            "童": 3002,
            "端": 3003,
            "竹": 3004,
            "竺": 3005,
            "笑": 3006,
            "笔": 3007,
            "笛": 3008,
            "笠": 3009,
            "符": 3010,
            "笨": 3011,
            "第": 3012,
            "笹": 3013,
            "筆": 3014,
            "等": 3015,
            "筋": 3016,
            "筍": 3017,
            "筐": 3018,
            "筑": 3019,
            "答": 3020,
            "策": 3021,
            "筹": 3022,
            "箇": 3023,
            "箋": 3024,
            "算": 3025,
            "管": 3026,
            "箪": 3027,
            "箭": 3028,
            "箱": 3029,
            "節": 3030,
            "範": 3031,
            "篇": 3032,
            "篋": 3033,
            "篚": 3034,
            "篤": 3035,
            "簡": 3036,
            "簿": 3037,
            "籃": 3038,
            "籌": 3039,
            "籍": 3040,
            "籠": 3041,
            "米": 3042,
            "籵": 3043,
            "粁": 3044,
            "粉": 3045,
            "粍": 3046,
            "粟": 3047,
            "粥": 3048,
            "粨": 3049,
            "精": 3050,
            "糊": 3051,
            "糎": 3052,
            "糖": 3053,
            "糸": 3054,
            "系": 3055,
            "紀": 3056,
            "約": 3057,
            "紅": 3058,
            "紋": 3059,
            "納": 3060,
            "純": 3061,
            "紘": 3062,
            "紙": 3063,
            "級": 3064,
            "素": 3065,
            "紡": 3066,
            "紫": 3067,
            "細": 3068,
            "紹": 3069,
            "紺": 3070,
            "終": 3071,
            "組": 3072,
            "絆": 3073,
            "経": 3074,
            "結": 3075,
            "絡": 3076,
            "給": 3077,
            "統": 3078,
            "絵": 3079,
            "絶": 3080,
            "綁": 3081,
            "經": 3082,
            "継": 3083,
            "続": 3084,
            "綜": 3085,
            "綠": 3086,
            "維": 3087,
            "綯": 3088,
            "綱": 3089,
            "網": 3090,
            "綸": 3091,
            "綺": 3092,
            "綾": 3093,
            "緋": 3094,
            "総": 3095,
            "緑": 3096,
            "緒": 3097,
            "線": 3098,
            "締": 3099,
            "編": 3100,
            "緩": 3101,
            "緬": 3102,
            "緯": 3103,
            "縄": 3104,
            "縊": 3105,
            "縣": 3106,
            "總": 3107,
            "繋": 3108,
            "織": 3109,
            "繹": 3110,
            "繼": 3111,
            "續": 3112,
            "红": 3113,
            "级": 3114,
            "纪": 3115,
            "纯": 3116,
            "纲": 3117,
            "纵": 3118,
            "线": 3119,
            "组": 3120,
            "绅": 3121,
            "细": 3122,
            "终": 3123,
            "绍": 3124,
            "经": 3125,
            "给": 3126,
            "统": 3127,
            "继": 3128,
            "绮": 3129,
            "维": 3130,
            "综": 3131,
            "缽": 3132,
            "网": 3133,
            "罗": 3134,
            "罠": 3135,
            "罪": 3136,
            "置": 3137,
            "罰": 3138,
            "罸": 3139,
            "羅": 3140,
            "羊": 3141,
            "美": 3142,
            "群": 3143,
            "義": 3144,
            "羽": 3145,
            "翁": 3146,
            "習": 3147,
            "翔": 3148,
            "翘": 3149,
            "翠": 3150,
            "翡": 3151,
            "翱": 3152,
            "翹": 3153,
            "翻": 3154,
            "翼": 3155,
            "老": 3156,
            "考": 3157,
            "者": 3158,
            "耆": 3159,
            "而": 3160,
            "耕": 3161,
            "耳": 3162,
            "耶": 3163,
            "耿": 3164,
            "聃": 3165,
            "联": 3166,
            "聖": 3167,
            "聘": 3168,
            "聚": 3169,
            "聞": 3170,
            "聡": 3171,
            "聯": 3172,
            "聰": 3173,
            "聲": 3174,
            "職": 3175,
            "肃": 3176,
            "肉": 3177,
            "肖": 3178,
            "肚": 3179,
            "股": 3180,
            "肥": 3181,
            "肩": 3182,
            "育": 3183,
            "背": 3184,
            "胞": 3185,
            "胠": 3186,
            "胡": 3187,
            "胤": 3188,
            "胴": 3189,
            "胸": 3190,
            "能": 3191,
            "脂": 3192,
            "脇": 3193,
            "脈": 3194,
            "脉": 3195,
            "脚": 3196,
            "脩": 3197,
            "脱": 3198,
            "脳": 3199,
            "腎": 3200,
            "腐": 3201,
            "腰": 3202,
            "腹": 3203,
            "腿": 3204,
            "膀": 3205,
            "膺": 3206,
            "臂": 3207,
            "臘": 3208,
            "臚": 3209,
            "臣": 3210,
            "臨": 3211,
            "自": 3212,
            "臭": 3213,
            "至": 3214,
            "致": 3215,
            "臺": 3216,
            "與": 3217,
            "興": 3218,
            "舍": 3219,
            "舎": 3220,
            "舞": 3221,
            "舟": 3222,
            "航": 3223,
            "船": 3224,
            "艦": 3225,
            "良": 3226,
            "色": 3227,
            "艳": 3228,
            "艶": 3229,
            "艺": 3230,
            "节": 3231,
            "芒": 3232,
            "芙": 3233,
            "芝": 3234,
            "芥": 3235,
            "芦": 3236,
            "芬": 3237,
            "芭": 3238,
            "芮": 3239,
            "芯": 3240,
            "花": 3241,
            "芳": 3242,
            "芸": 3243,
            "芹": 3244,
            "芽": 3245,
            "苏": 3246,
            "苑": 3247,
            "苗": 3248,
            "苣": 3249,
            "若": 3250,
            "英": 3251,
            "苺": 3252,
            "茂": 3253,
            "范": 3254,
            "茅": 3255,
            "茜": 3256,
            "茶": 3257,
            "茸": 3258,
            "草": 3259,
            "荊": 3260,
            "荒": 3261,
            "荔": 3262,
            "荘": 3263,
            "荥": 3264,
            "荪": 3265,
            "荫": 3266,
            "药": 3267,
            "荷": 3268,
            "荻": 3269,
            "荼": 3270,
            "莉": 3271,
            "莊": 3272,
            "莎": 3273,
            "莘": 3274,
            "莞": 3275,
            "莫": 3276,
            "莱": 3277,
            "莲": 3278,
            "莴": 3279,
            "菇": 3280,
            "菉": 3281,
            "菊": 3282,
            "菜": 3283,
            "華": 3284,
            "菱": 3285,
            "菲": 3286,
            "萌": 3287,
            "萍": 3288,
            "萝": 3289,
            "营": 3290,
            "萧": 3291,
            "萨": 3292,
            "萬": 3293,
            "落": 3294,
            "葆": 3295,
            "葉": 3296,
            "著": 3297,
            "葛": 3298,
            "董": 3299,
            "葦": 3300,
            "葫": 3301,
            "葵": 3302,
            "蒙": 3303,
            "蒭": 3304,
            "蒲": 3305,
            "蒼": 3306,
            "蒿": 3307,
            "蓀": 3308,
            "蓑": 3309,
            "蓝": 3310,
            "蓮": 3311,
            "蔡": 3312,
            "蔭": 3313,
            "蔵": 3314,
            "蕃": 3315,
            "蕉": 3316,
            "蕨": 3317,
            "蕩": 3318,
            "蕭": 3319,
            "薇": 3320,
            "薊": 3321,
            "薔": 3322,
            "薙": 3323,
            "薛": 3324,
            "薩": 3325,
            "薫": 3326,
            "薯": 3327,
            "藍": 3328,
            "藏": 3329,
            "藕": 3330,
            "藝": 3331,
            "藤": 3332,
            "藥": 3333,
            "藩": 3334,
            "藻": 3335,
            "蘄": 3336,
            "蘅": 3337,
            "蘇": 3338,
            "蘑": 3339,
            "蘭": 3340,
            "蘿": 3341,
            "虎": 3342,
            "虐": 3343,
            "虔": 3344,
            "處": 3345,
            "虚": 3346,
            "虛": 3347,
            "號": 3348,
            "虫": 3349,
            "虹": 3350,
            "蛇": 3351,
            "蛍": 3352,
            "蛙": 3353,
            "蛭": 3354,
            "蜃": 3355,
            "蜡": 3356,
            "蝉": 3357,
            "蝕": 3358,
            "蝴": 3359,
            "蝶": 3360,
            "融": 3361,
            "螺": 3362,
            "蟲": 3363,
            "蠕": 3364,
            "蠻": 3365,
            "血": 3366,
            "衆": 3367,
            "行": 3368,
            "術": 3369,
            "街": 3370,
            "衙": 3371,
            "衛": 3372,
            "衝": 3373,
            "衡": 3374,
            "衢": 3375,
            "衣": 3376,
            "补": 3377,
            "表": 3378,
            "袁": 3379,
            "袈": 3380,
            "袖": 3381,
            "被": 3382,
            "裁": 3383,
            "裂": 3384,
            "装": 3385,
            "裏": 3386,
            "裔": 3387,
            "裕": 3388,
            "補": 3389,
            "裝": 3390,
            "裟": 3391,
            "裳": 3392,
            "裸": 3393,
            "製": 3394,
            "褒": 3395,
            "襄": 3396,
            "襟": 3397,
            "襲": 3398,
            "西": 3399,
            "要": 3400,
            "覇": 3401,
            "見": 3402,
            "規": 3403,
            "視": 3404,
            "覚": 3405,
            "親": 3406,
            "観": 3407,
            "覺": 3408,
            "觀": 3409,
            "观": 3410,
            "角": 3411,
            "解": 3412,
            "触": 3413,
            "觳": 3414,
            "言": 3415,
            "計": 3416,
            "記": 3417,
            "設": 3418,
            "許": 3419,
            "訳": 3420,
            "証": 3421,
            "詔": 3422,
            "詞": 3423,
            "詠": 3424,
            "試": 3425,
            "詩": 3426,
            "話": 3427,
            "誌": 3428,
            "誐": 3429,
            "誒": 3430,
            "誓": 3431,
            "誕": 3432,
            "誘": 3433,
            "語": 3434,
            "誠": 3435,
            "誡": 3436,
            "誦": 3437,
            "說": 3438,
            "説": 3439,
            "読": 3440,
            "誰": 3441,
            "課": 3442,
            "調": 3443,
            "談": 3444,
            "論": 3445,
            "諭": 3446,
            "諷": 3447,
            "諸": 3448,
            "謀": 3449,
            "謁": 3450,
            "謎": 3451,
            "謙": 3452,
            "講": 3453,
            "謝": 3454,
            "謡": 3455,
            "譌": 3456,
            "識": 3457,
            "譚": 3458,
            "譜": 3459,
            "警": 3460,
            "議": 3461,
            "護": 3462,
            "讀": 3463,
            "變": 3464,
            "讐": 3465,
            "讓": 3466,
            "计": 3467,
            "让": 3468,
            "议": 3469,
            "许": 3470,
            "论": 3471,
            "讼": 3472,
            "诉": 3473,
            "词": 3474,
            "诗": 3475,
            "诚": 3476,
            "话": 3477,
            "语": 3478,
            "诶": 3479,
            "请": 3480,
            "诺": 3481,
            "读": 3482,
            "课": 3483,
            "谁": 3484,
            "谦": 3485,
            "谭": 3486,
            "谷": 3487,
            "豆": 3488,
            "豊": 3489,
            "豌": 3490,
            "豐": 3491,
            "豚": 3492,
            "象": 3493,
            "豪": 3494,
            "豫": 3495,
            "豬": 3496,
            "豹": 3497,
            "貓": 3498,
            "貝": 3499,
            "貞": 3500,
            "負": 3501,
            "財": 3502,
            "貫": 3503,
            "貴": 3504,
            "費": 3505,
            "賀": 3506,
            "資": 3507,
            "賈": 3508,
            "賊": 3509,
            "賓": 3510,
            "賞": 3511,
            "賢": 3512,
            "賦": 3513,
            "質": 3514,
            "購": 3515,
            "贈": 3516,
            "贝": 3517,
            "贞": 3518,
            "财": 3519,
            "贤": 3520,
            "质": 3521,
            "贵": 3522,
            "贺": 3523,
            "贼": 3524,
            "资": 3525,
            "赤": 3526,
            "赭": 3527,
            "走": 3528,
            "赵": 3529,
            "起": 3530,
            "超": 3531,
            "越": 3532,
            "趙": 3533,
            "足": 3534,
            "跆": 3535,
            "跑": 3536,
            "跖": 3537,
            "跟": 3538,
            "跡": 3539,
            "路": 3540,
            "跳": 3541,
            "踊": 3542,
            "踏": 3543,
            "踢": 3544,
            "蹴": 3545,
            "身": 3546,
            "車": 3547,
            "軌": 3548,
            "軍": 3549,
            "軒": 3550,
            "転": 3551,
            "軽": 3552,
            "載": 3553,
            "輔": 3554,
            "輛": 3555,
            "輝": 3556,
            "輪": 3557,
            "輿": 3558,
            "轉": 3559,
            "车": 3560,
            "轩": 3561,
            "转": 3562,
            "辆": 3563,
            "辉": 3564,
            "辛": 3565,
            "辣": 3566,
            "辨": 3567,
            "辭": 3568,
            "辯": 3569,
            "辰": 3570,
            "農": 3571,
            "边": 3572,
            "辺": 3573,
            "辽": 3574,
            "达": 3575,
            "辿": 3576,
            "迄": 3577,
            "迅": 3578,
            "过": 3579,
            "迈": 3580,
            "运": 3581,
            "近": 3582,
            "返": 3583,
            "这": 3584,
            "进": 3585,
            "远": 3586,
            "迦": 3587,
            "迪": 3588,
            "述": 3589,
            "迷": 3590,
            "追": 3591,
            "送": 3592,
            "适": 3593,
            "逆": 3594,
            "选": 3595,
            "這": 3596,
            "通": 3597,
            "造": 3598,
            "逢": 3599,
            "連": 3600,
            "逯": 3601,
            "週": 3602,
            "進": 3603,
            "遁": 3604,
            "遇": 3605,
            "遊": 3606,
            "運": 3607,
            "遍": 3608,
            "過": 3609,
            "道": 3610,
            "達": 3611,
            "遗": 3612,
            "遙": 3613,
            "遜": 3614,
            "遠": 3615,
            "遥": 3616,
            "遮": 3617,
            "選": 3618,
            "遺": 3619,
            "遼": 3620,
            "避": 3621,
            "邁": 3622,
            "還": 3623,
            "邊": 3624,
            "邑": 3625,
            "邓": 3626,
            "那": 3627,
            "邦": 3628,
            "邪": 3629,
            "邱": 3630,
            "邵": 3631,
            "郁": 3632,
            "郊": 3633,
            "郎": 3634,
            "郑": 3635,
            "郛": 3636,
            "郝": 3637,
            "郡": 3638,
            "部": 3639,
            "郭": 3640,
            "郷": 3641,
            "都": 3642,
            "鄧": 3643,
            "鄭": 3644,
            "酈": 3645,
            "酉": 3646,
            "酒": 3647,
            "酔": 3648,
            "酥": 3649,
            "酱": 3650,
            "酷": 3651,
            "酸": 3652,
            "醋": 3653,
            "醒": 3654,
            "醫": 3655,
            "采": 3656,
            "釈": 3657,
            "釋": 3658,
            "里": 3659,
            "重": 3660,
            "野": 3661,
            "量": 3662,
            "金": 3663,
            "釗": 3664,
            "釣": 3665,
            "鈍": 3666,
            "鈴": 3667,
            "鉄": 3668,
            "鉢": 3669,
            "鉦": 3670,
            "鉱": 3671,
            "鉴": 3672,
            "銀": 3673,
            "銃": 3674,
            "銅": 3675,
            "銓": 3676,
            "銖": 3677,
            "銘": 3678,
            "銳": 3679,
            "鋒": 3680,
            "鋪": 3681,
            "鋼": 3682,
            "錄": 3683,
            "錡": 3684,
            "錦": 3685,
            "錬": 3686,
            "録": 3687,
            "鍋": 3688,
            "鍵": 3689,
            "鎖": 3690,
            "鎧": 3691,
            "鎮": 3692,
            "鏡": 3693,
            "鐘": 3694,
            "鐵": 3695,
            "鐸": 3696,
            "鑒": 3697,
            "钊": 3698,
            "钢": 3699,
            "钦": 3700,
            "钱": 3701,
            "铁": 3702,
            "铎": 3703,
            "铜": 3704,
            "铭": 3705,
            "铺": 3706,
            "锡": 3707,
            "键": 3708,
            "镇": 3709,
            "镗": 3710,
            "镜": 3711,
            "長": 3712,
            "长": 3713,
            "門": 3714,
            "閃": 3715,
            "開": 3716,
            "閏": 3717,
            "閒": 3718,
            "間": 3719,
            "関": 3720,
            "閣": 3721,
            "閨": 3722,
            "闇": 3723,
            "闍": 3724,
            "闕": 3725,
            "闘": 3726,
            "關": 3727,
            "门": 3728,
            "问": 3729,
            "闯": 3730,
            "阁": 3731,
            "阪": 3732,
            "防": 3733,
            "阳": 3734,
            "阿": 3735,
            "陀": 3736,
            "附": 3737,
            "际": 3738,
            "陈": 3739,
            "降": 3740,
            "限": 3741,
            "陛": 3742,
            "院": 3743,
            "陣": 3744,
            "除": 3745,
            "陪": 3746,
            "陳": 3747,
            "陵": 3748,
            "陶": 3749,
            "陸": 3750,
            "険": 3751,
            "陽": 3752,
            "隆": 3753,
            "隊": 3754,
            "階": 3755,
            "隔": 3756,
            "隗": 3757,
            "隠": 3758,
            "隣": 3759,
            "隱": 3760,
            "隴": 3761,
            "隸": 3762,
            "隻": 3763,
            "隼": 3764,
            "雀": 3765,
            "雁": 3766,
            "雄": 3767,
            "雅": 3768,
            "集": 3769,
            "雇": 3770,
            "雉": 3771,
            "雎": 3772,
            "雕": 3773,
            "雙": 3774,
            "雛": 3775,
            "雜": 3776,
            "雞": 3777,
            "離": 3778,
            "難": 3779,
            "雨": 3780,
            "雪": 3781,
            "雲": 3782,
            "雳": 3783,
            "零": 3784,
            "雷": 3785,
            "電": 3786,
            "雾": 3787,
            "需": 3788,
            "霆": 3789,
            "震": 3790,
            "霊": 3791,
            "霍": 3792,
            "霖": 3793,
            "霜": 3794,
            "霞": 3795,
            "霧": 3796,
            "霰": 3797,
            "露": 3798,
            "霸": 3799,
            "霹": 3800,
            "靂": 3801,
            "靈": 3802,
            "青": 3803,
            "靖": 3804,
            "静": 3805,
            "非": 3806,
            "靠": 3807,
            "面": 3808,
            "革": 3809,
            "靴": 3810,
            "靼": 3811,
            "鞋": 3812,
            "鞍": 3813,
            "鞠": 3814,
            "韃": 3815,
            "韋": 3816,
            "韓": 3817,
            "韦": 3818,
            "韩": 3819,
            "韭": 3820,
            "音": 3821,
            "韶": 3822,
            "響": 3823,
            "頃": 3824,
            "項": 3825,
            "順": 3826,
            "須": 3827,
            "頌": 3828,
            "頒": 3829,
            "領": 3830,
            "頭": 3831,
            "顆": 3832,
            "題": 3833,
            "額": 3834,
            "顏": 3835,
            "顔": 3836,
            "願": 3837,
            "類": 3838,
            "顯": 3839,
            "项": 3840,
            "顾": 3841,
            "颂": 3842,
            "颊": 3843,
            "颖": 3844,
            "颗": 3845,
            "颜": 3846,
            "風": 3847,
            "颪": 3848,
            "颱": 3849,
            "飄": 3850,
            "风": 3851,
            "飛": 3852,
            "飞": 3853,
            "食": 3854,
            "飯": 3855,
            "飾": 3856,
            "餅": 3857,
            "養": 3858,
            "餓": 3859,
            "館": 3860,
            "饼": 3861,
            "饾": 3862,
            "馆": 3863,
            "馒": 3864,
            "首": 3865,
            "香": 3866,
            "馬": 3867,
            "馮": 3868,
            "駆": 3869,
            "駐": 3870,
            "駒": 3871,
            "駙": 3872,
            "駢": 3873,
            "駿": 3874,
            "騎": 3875,
            "騒": 3876,
            "験": 3877,
            "騭": 3878,
            "騰": 3879,
            "騷": 3880,
            "驁": 3881,
            "驗": 3882,
            "驚": 3883,
            "驤": 3884,
            "马": 3885,
            "驰": 3886,
            "骨": 3887,
            "骸": 3888,
            "髀": 3889,
            "體": 3890,
            "高": 3891,
            "髪": 3892,
            "鬘": 3893,
            "鬥": 3894,
            "鬪": 3895,
            "鬼": 3896,
            "魂": 3897,
            "魄": 3898,
            "魔": 3899,
            "魚": 3900,
            "魯": 3901,
            "鮑": 3902,
            "鮫": 3903,
            "鮮": 3904,
            "鯖": 3905,
            "鯵": 3906,
            "鰐": 3907,
            "鱀": 3908,
            "鱼": 3909,
            "鲁": 3910,
            "鲤": 3911,
            "鳥": 3912,
            "鳩": 3913,
            "鳳": 3914,
            "鳴": 3915,
            "鳶": 3916,
            "鴉": 3917,
            "鴣": 3918,
            "鴨": 3919,
            "鴻": 3920,
            "鵡": 3921,
            "鵩": 3922,
            "鵬": 3923,
            "鶍": 3924,
            "鶴": 3925,
            "鷓": 3926,
            "鷹": 3927,
            "鷺": 3928,
            "鸚": 3929,
            "鸟": 3930,
            "鸡": 3931,
            "鸭": 3932,
            "鸿": 3933,
            "鹅": 3934,
            "鹹": 3935,
            "鹼": 3936,
            "鹽": 3937,
            "鹿": 3938,
            "麗": 3939,
            "麥": 3940,
            "麵": 3941,
            "麻": 3942,
            "麼": 3943,
            "麾": 3944,
            "黃": 3945,
            "黄": 3946,
            "黎": 3947,
            "黑": 3948,
            "黒": 3949,
            "黙": 3950,
            "黛": 3951,
            "黨": 3952,
            "鼉": 3953,
            "鼎": 3954,
            "鼓": 3955,
            "鼠": 3956,
            "鼻": 3957,
            "齉": 3958,
            "齊": 3959,
            "齋": 3960,
            "齐": 3961,
            "龍": 3962,
            "龙": 3963,
            "ꜛ": 3964,
            "ꜜ": 3965,
            "ꜣ": 3966,
            "ꜩ": 3967,
            "ꜫ": 3968,
            "ꜭ": 3969,
            "ꞅ": 3970,
            "ꞎ": 3971,
            "ꞵ": 3972,
            "ꦠ": 3973,
            "ꦯ": 3974,
            "ꦲ": 3975,
            "ꭓ": 3976,
            "ꭰ": 3977,
            "ꭳ": 3978,
            "ꭶ": 3979,
            "ꭸ": 3980,
            "ꭹ": 3981,
            "ꮀ": 3982,
            "ꮃ": 3983,
            "ꮉ": 3984,
            "ꮝ": 3985,
            "ꮿ": 3986,
            "ﬀ": 3987,
            "ﬁ": 3988,
            "ﬂ": 3989,
            "ﮭ": 3990,
            "ﮮ": 3991,
            "ﷲ": 3992,
            "ﷺ": 3993,
            "ﺒ": 3994,
            "ﻉ": 3995,
            "ﻋ": 3996,
            "ﻔ": 3997,
            "ﻴ": 3998,
            "﻿": 3999,
            "！": 4000,
            "％": 4001,
            "＆": 4002,
            "（": 4003,
            "）": 4004,
            "，": 4005,
            "－": 4006,
            "／": 4007,
            "１": 4008,
            "２": 4009,
            "３": 4010,
            "４": 4011,
            "６": 4012,
            "：": 4013,
            "＜": 4014,
            "＝": 4015,
            "＞": 4016,
            "？": 4017,
            "［": 4018,
            "］": 4019,
            "ａ": 4020,
            "ｃ": 4021,
            "ｄ": 4022,
            "ｇ": 4023,
            "ｉ": 4024,
            "ｊ": 4025,
            "ｌ": 4026,
            "ｍ": 4027,
            "ｐ": 4028,
            "ｒ": 4029,
            "ｘ": 4030,
            "｜": 4031,
            "～": 4032,
            "｢": 4033,
            "｣": 4034,
            "･": 4035,
            "ｰ": 4036,
            "￥": 4037,
            "�": 4038,
            "𐀁": 4039,
            "𐀈": 4040,
            "𐀫": 4041,
            "𐎠": 4042,
            "𐎢": 4043,
            "𐎭": 4044,
            "𐎰": 4045,
            "𐎹": 4046,
            "𐎺": 4047,
            "𐎼": 4048,
            "𐏁": 4049,
            "𐭃": 4050,
            "𐭉": 4051,
            "𐭓": 4052,
            "𐭕": 4053,
            "𒀯": 4054,
            "𒀳": 4055,
            "𝕄": 4056,
            "𝕡": 4057,
            "🖕": 4058,
            "##r": 4059,
            "##o": 4060,
            "##s": 4061,
            "##l": 4062,
            "##y": 4063,
            "##m": 4064,
            "##a": 4065,
            "##n": 4066,
            "##e": 4067,
            "##t": 4068,
            "##u": 4069,
            "##q": 4070,
            "##d": 4071,
            "##i": 4072,
            "##c": 4073,
            "##h": 4074,
            "##k": 4075,
            "##g": 4076,
            "##p": 4077,
            "##b": 4078,
            "##v": 4079,
            "##z": 4080,
            "##雀": 4081,
            "##賦": 4082,
            "##w": 4083,
            "##x": 4084,
            "##λ": 4085,
            "##υ": 4086,
            "##j": 4087,
            "##ʃ": 4088,
            "##ɐ": 4089,
            "##ˈ": 4090,
            "##ɲ": 4091,
            "##f": 4092,
            "##ل": 4093,
            "##ث": 4094,
            "##ا": 4095,
            "##م": 4096,
            "##ن": 4097,
            "##国": 4098,
            "##堀": 4099,
            "##ß": 4100,
            "##ø": 4101,
            "##ɪ": 4102,
            "##ʔ": 4103,
            "##日": 4104,
            "##山": 4105,
            "##時": 4106,
            "##初": 4107,
            "##历": 4108,
            "##ʲ": 4109,
            "##в": 4110,
            "##я": 4111,
            "##т": 4112,
            "##и": 4113,
            "##е": 4114,
            "##л": 4115,
            "##ə": 4116,
            "##渡": 4117,
            "##ッ": 4118,
            "##シ": 4119,
            "##ホ": 4120,
            "##ク": 4121,
            "##ː": 4122,
            "##望": 4123,
            "##コ": 4124,
            "##ー": 4125,
            "##ル": 4126,
            "##ɔ": 4127,
            "##熊": 4128,
            "##卒": 4129,
            "##子": 4130,
            "##中": 4131,
            "##允": 4132,
            "##ð": 4133,
            "##ˌ": 4134,
            "##ɑ": 4135,
            "##о": 4136,
            "##р": 4137,
            "##а": 4138,
            "##岳": 4139,
            "##庙": 4140,
            "##歩": 4141,
            "##η": 4142,
            "##δ": 4143,
            "##ε": 4144,
            "##線": 4145,
            "##週": 4146,
            "##報": 4147,
            "##猫": 4148,
            "##æ": 4149,
            "##ظ": 4150,
            "##の": 4151,
            "##丸": 4152,
            "##一": 4153,
            "##ق": 4154,
            "##ي": 4155,
            "##س": 4156,
            "##უ": 4157,
            "##ბ": 4158,
            "##ა": 4159,
            "##ს": 4160,
            "##რ": 4161,
            "##ი": 4162,
            "##ᅡ": 4163,
            "##ᆫ": 4164,
            "##μ": 4165,
            "##ι": 4166,
            "##ʰ": 4167,
            "##ˣ": 4168,
            "##ב": 4169,
            "##ר": 4170,
            "##弥": 4171,
            "##ʀ": 4172,
            "##南": 4173,
            "##襄": 4174,
            "##侬": 4175,
            "##車": 4176,
            "##ʊ": 4177,
            "##м": 4178,
            "##ʁ": 4179,
            "##ン": 4180,
            "##ウ": 4181,
            "##ж": 4182,
            "##н": 4183,
            "##κ": 4184,
            "##ˠ": 4185,
            "##ܘ": 4186,
            "##ܠ": 4187,
            "##ܣ": 4188,
            "##ա": 4189,
            "##յ": 4190,
            "##ծ": 4191,
            "##ե": 4192,
            "##ր": 4193,
            "##ο": 4194,
            "##π": 4195,
            "##α": 4196,
            "##ν": 4197,
            "##τ": 4198,
            "##σ": 4199,
            "##ς": 4200,
            "##ラ": 4201,
            "##マ": 4202,
            "##編": 4203,
            "##手": 4204,
            "##取": 4205,
            "##り": 4206,
            "##ρ": 4207,
            "##ψ": 4208,
            "##ハ": 4209,
            "##サ": 4210,
            "##号": 4211,
            "##γ": 4212,
            "##ω": 4213,
            "##会": 4214,
            "##い": 4215,
            "##物": 4216,
            "##語": 4217,
            "##ł": 4218,
            "##ケ": 4219,
            "##チ": 4220,
            "##草": 4221,
            "##ᅫ": 4222,
            "##ᄉ": 4223,
            "##ᅩ": 4224,
            "##ᄒ": 4225,
            "##ᅢ": 4226,
            "##ᆼ": 4227,
            "##ᅥ": 4228,
            "##д": 4229,
            "##з": 4230,
            "##і": 4231,
            "##у": 4232,
            "##𐀁": 4233,
            "##𐀫": 4234,
            "##法": 4235,
            "##者": 4236,
            "##記": 4237,
            "##録": 4238,
            "##ы": 4239,
            "##г": 4240,
            "##ʻ": 4241,
            "##פ": 4242,
            "##נ": 4243,
            "##י": 4244,
            "##þ": 4245,
            "##ロ": 4246,
            "##イ": 4247,
            "##メ": 4248,
            "##ト": 4249,
            "##ɒ": 4250,
            "##ᵻ": 4251,
            "##リ": 4252,
            "##オ": 4253,
            "##フ": 4254,
            "##ス": 4255,
            "##テ": 4256,
            "##ر": 4257,
            "##ح": 4258,
            "##ᅧ": 4259,
            "##ᆯ": 4260,
            "##ض": 4261,
            "##ة": 4262,
            "##к": 4263,
            "##ल": 4264,
            "##क": 4265,
            "##ミ": 4266,
            "##ア": 4267,
            "##女": 4268,
            "##学": 4269,
            "##園": 4270,
            "##須": 4271,
            "##え": 4272,
            "##っ": 4273,
            "##て": 4274,
            "##き": 4275,
            "##た": 4276,
            "##ј": 4277,
            "##с": 4278,
            "##ɛ": 4279,
            "##楯": 4280,
            "##城": 4281,
            "##州": 4282,
            "##し": 4283,
            "##ま": 4284,
            "##公": 4285,
            "##式": 4286,
            "##ァ": 4287,
            "##神": 4288,
            "##異": 4289,
            "##聞": 4290,
            "##ヘ": 4291,
            "##ソ": 4292,
            "##ナ": 4293,
            "##б": 4294,
            "##र": 4295,
            "##ग": 4296,
            "##こ": 4297,
            "##江": 4298,
            "##寞": 4299,
            "##的": 4300,
            "##咖": 4301,
            "##啡": 4302,
            "##因": 4303,
            "##茶": 4304,
            "##在": 4305,
            "##蓝": 4306,
            "##色": 4307,
            "##星": 4308,
            "##球": 4309,
            "##上": 4310,
            "##少": 4311,
            "##す": 4312,
            "##ね": 4313,
            "##恵": 4314,
            "##比": 4315,
            "##寿": 4316,
            "##大": 4317,
            "##祭": 4318,
            "##月": 4319,
            "##ʒ": 4320,
            "##勝": 4321,
            "##φ": 4322,
            "##天": 4323,
            "##薇": 4324,
            "##ت": 4325,
            "##ه": 4326,
            "##ム": 4327,
            "##客": 4328,
            "##希": 4329,
            "##幻": 4330,
            "##撃": 4331,
            "##ネ": 4332,
            "##ش": 4333,
            "##خ": 4334,
            "##द": 4335,
            "##य": 4336,
            "##म": 4337,
            "##清": 4338,
            "##泉": 4339,
            "##ب": 4340,
            "##њ": 4341,
            "##地": 4342,
            "##ћ": 4343,
            "##牙": 4344,
            "##门": 4345,
            "##է": 4346,
            "##ի": 4347,
            "##作": 4348,
            "##ɳ": 4349,
            "##ю": 4350,
            "##ɹ": 4351,
            "##स": 4352,
            "##ı": 4353,
            "##β": 4354,
            "##ツ": 4355,
            "##ח": 4356,
            "##ד": 4357,
            "##ħ": 4358,
            "##井": 4359,
            "##د": 4360,
            "##و": 4361,
            "##唄": 4362,
            "##締": 4363,
            "##め": 4364,
            "##太": 4365,
            "##鼓": 4366,
            "##ɾ": 4367,
            "##ɡ": 4368,
            "##鷹": 4369,
            "##型": 4370,
            "##航": 4371,
            "##空": 4372,
            "##母": 4373,
            "##艦": 4374,
            "##小": 4375,
            "##品": 4376,
            "##成": 4377,
            "##န": 4378,
            "##ك": 4379,
            "##京": 4380,
            "##夢": 4381,
            "##譚": 4382,
            "##二": 4383,
            "##郎": 4384,
            "##術": 4385,
            "##殺": 4386,
            "##θ": 4387,
            "##魂": 4388,
            "##汉": 4389,
            "##х": 4390,
            "##ᄀ": 4391,
            "##ᅳ": 4392,
            "##ᄅ": 4393,
            "##ᅵ": 4394,
            "##ǝ": 4395,
            "##พ": 4396,
            "##ร": 4397,
            "##ج": 4398,
            "##之": 4399,
            "##丞": 4400,
            "##御": 4401,
            "##剣": 4402,
            "##流": 4403,
            "##入": 4404,
            "##門": 4405,
            "##ɟ": 4406,
            "##信": 4407,
            "##ц": 4408,
            "##タ": 4409,
            "##ɣ": 4410,
            "##春": 4411,
            "##ո": 4412,
            "##ց": 4413,
            "##լ": 4414,
            "##ս": 4415,
            "##տ": 4416,
            "##կ": 4417,
            "##ն": 4418,
            "##ნ": 4419,
            "##ვ": 4420,
            "##ზ": 4421,
            "##ف": 4422,
            "##ز": 4423,
            "##ی": 4424,
            "##原": 4425,
            "##斉": 4426,
            "##と": 4427,
            "##巨": 4428,
            "##像": 4429,
            "##ɫ": 4430,
            "##ʿ": 4431,
            "##喜": 4432,
            "##即": 4433,
            "##斬": 4434,
            "##段": 4435,
            "##突": 4436,
            "##ء": 4437,
            "##ᵝ": 4438,
            "##ʏ": 4439,
            "##ŋ": 4440,
            "##ヒ": 4441,
            "##ь": 4442,
            "##廟": 4443,
            "##व": 4444,
            "##夕": 4445,
            "##ん": 4446,
            "##な": 4447,
            "##ょ": 4448,
            "##に": 4449,
            "##奉": 4450,
            "##仕": 4451,
            "##る": 4452,
            "##ゃ": 4453,
            "##砂": 4454,
            "##族": 4455,
            "##坊": 4456,
            "##藤": 4457,
            "##จ": 4458,
            "##零": 4459,
            "##兵": 4460,
            "##衛": 4461,
            "##鐘": 4462,
            "##ማ": 4463,
            "##ር": 4464,
            "##ረ": 4465,
            "##ノ": 4466,
            "##レ": 4467,
            "##花": 4468,
            "##を": 4469,
            "##見": 4470,
            "##集": 4471,
            "##海": 4472,
            "##カ": 4473,
            "##ध": 4474,
            "##ᄋ": 4475,
            "##ᆷ": 4476,
            "##暴": 4477,
            "##走": 4478,
            "##ន": 4479,
            "##ស": 4480,
            "##ヤ": 4481,
            "##-": 4482,
            "##毛": 4483,
            "##妮": 4484,
            "##卖": 4485,
            "##ɕ": 4486,
            "##炎": 4487,
            "##灣": 4488,
            "##堆": 4489,
            "##填": 4490,
            "##區": 4491,
            "##胡": 4492,
            "##木": 4493,
            "##ह": 4494,
            "##ʌ": 4495,
            "##ع": 4496,
            "##э": 4497,
            "##漢": 4498,
            "##羅": 4499,
            "##道": 4500,
            "##ɞ": 4501,
            "##顔": 4502,
            "##向": 4503,
            "##う": 4504,
            "##側": 4505,
            "##着": 4506,
            "##悪": 4507,
            "##魔": 4508,
            "##々": 4509,
            "##田": 4510,
            "##権": 4511,
            "##内": 4512,
            "##智": 4513,
            "##拳": 4514,
            "##强": 4515,
            "##部": 4516,
            "##न": 4517,
            "##學": 4518,
            "##ョ": 4519,
            "##昭": 4520,
            "##忠": 4521,
            "##東": 4522,
            "##ɯ": 4523,
            "##ہ": 4524,
            "##ʼ": 4525,
            "##ज": 4526,
            "##辭": 4527,
            "##ら": 4528,
            "##戦": 4529,
            "##争": 4530,
            "##龙": 4531,
            "##经": 4532,
            "##下": 4533,
            "##教": 4534,
            "##徒": 4535,
            "##ч": 4536,
            "##ห": 4537,
            "##ม": 4538,
            "##ก": 4539,
            "##แ": 4540,
            "##น": 4541,
            "##前": 4542,
            "##怪": 4543,
            "##เ": 4544,
            "##ป": 4545,
            "##张": 4546,
            "##萨": 4547,
            "##冒": 4548,
            "##険": 4549,
            "##ャ": 4550,
            "##は": 4551,
            "##せ": 4552,
            "##か": 4553,
            "##恋": 4554,
            "##ˑ": 4555,
            "##ˤ": 4556,
            "##ล": 4557,
            "##ย": 4558,
            "##า": 4559,
            "##ณ": 4560,
            "##ต": 4561,
            "##ᅲ": 4562,
            "##ᅪ": 4563,
            "##強": 4564,
            "##越": 4565,
            "##邦": 4566,
            "##人": 4567,
            "##ʾ": 4568,
            "##ะ": 4569,
            "##ท": 4570,
            "##ษ": 4571,
            "##ち": 4572,
            "##治": 4573,
            "##щ": 4574,
            "##キ": 4575,
            "##ম": 4576,
            "##ব": 4577,
            "##ঙ": 4578,
            "##散": 4579,
            "##關": 4580,
            "##ъ": 4581,
            "##ש": 4582,
            "##ו": 4583,
            "##ע": 4584,
            "##宋": 4585,
            "##真": 4586,
            "##く": 4587,
            "##エ": 4588,
            "##セ": 4589,
            "##ェ": 4590,
            "##転": 4591,
            "##投": 4592,
            "##け": 4593,
            "##萬": 4594,
            "##造": 4595,
            "##ז": 4596,
            "##ה": 4597,
            "##弘": 4598,
            "##桓": 4599,
            "##主": 4600,
            "##義": 4601,
            "##佳": 4602,
            "##风": 4603,
            "##康": 4604,
            "##衢": 4605,
            "##德": 4606,
            "##行": 4607,
            "##ק": 4608,
            "##ס": 4609,
            "##ξ": 4610,
            "##ไ": 4611,
            "##巖": 4612,
            "##ゥ": 4613,
            "##च": 4614,
            "##ण": 4615,
            "##遠": 4616,
            "##層": 4617,
            "##崖": 4618,
            "##進": 4619,
            "##ɨ": 4620,
            "##你": 4621,
            "##却": 4622,
            "##总": 4623,
            "##是": 4624,
            "##笑": 4625,
            "##我": 4626,
            "##诺": 4627,
            "##ζ": 4628,
            "##馬": 4629,
            "##宏": 4630,
            "##通": 4631,
            "##ィ": 4632,
            "##ニ": 4633,
            "##動": 4634,
            "##対": 4635,
            "##応": 4636,
            "##đ": 4637,
            "##个": 4638,
            "##ʷ": 4639,
            "##虔": 4640,
            "##酥": 4641,
            "##雞": 4642,
            "##沢": 4643,
            "##க": 4644,
            "##翼": 4645,
            "##п": 4646,
            "##χ": 4647,
            "##闇": 4648,
            "##雲": 4649,
            "##相": 4650,
            "##富": 4651,
            "##場": 4652,
            "##次": 4653,
            "##世": 4654,
            "##界": 4655,
            "##忘": 4656,
            "##れ": 4657,
            "##拟": 4658,
            "##语": 4659,
            "##系": 4660,
            "##统": 4661,
            "##港": 4662,
            "##司": 4663,
            "##ذ": 4664,
            "##խ": 4665,
            "##մ": 4666,
            "##極": 4667,
            "##殿": 4668,
            "##ى": 4669,
            "##よ": 4670,
            "##א": 4671,
            "##ם": 4672,
            "##貞": 4673,
            "##ワ": 4674,
            "##ლ": 4675,
            "##ძ": 4676,
            "##ე": 4677,
            "##ろ": 4678,
            "##伝": 4679,
            "##説": 4680,
            "##特": 4681,
            "##別": 4682,
            "##版": 4683,
            "##ォ": 4684,
            "##战": 4685,
            "##斗": 4686,
            "##橚": 4687,
            "##加": 4688,
            "##坡": 4689,
            "##佛": 4690,
            "##居": 4691,
            "##士": 4692,
            "##林": 4693,
            "##末": 4694,
            "##鱼": 4695,
            "##生": 4696,
            "##裏": 4697,
            "##光": 4698,
            "##寺": 4699,
            "##美": 4700,
            "##安": 4701,
            "##三": 4702,
            "##变": 4703,
            "##了": 4704,
            "##棵": 4705,
            "##树": 4706,
            "##石": 4707,
            "##ط": 4708,
            "##კ": 4709,
            "##დ": 4710,
            "##ო": 4711,
            "##ュ": 4712,
            "##モ": 4713,
            "##𐎠": 4714,
            "##𐎼": 4715,
            "##𐎹": 4716,
            "##𐎺": 4717,
            "##𐎢": 4718,
            "##𐏁": 4719,
            "##ʂ": 4720,
            "##吳": 4721,
            "##穎": 4722,
            "##恆": 4723,
            "##皇": 4724,
            "##帝": 4725,
            "##鵬": 4726,
            "##飛": 4727,
            "##広": 4728,
            "##ш": 4729,
            "##ช": 4730,
            "##ว": 4731,
            "##ง": 4732,
            "##դ": 4733,
            "##崎": 4734,
            "##侗": 4735,
            "##機": 4736,
            "##ပ": 4737,
            "##င": 4738,
            "##浪": 4739,
            "##息": 4740,
            "##老": 4741,
            "##君": 4742,
            "##根": 4743,
            "##敬": 4744,
            "##曦": 4745,
            "##छ": 4746,
            "##ხ": 4747,
            "##词": 4748,
            "##त": 4749,
            "##西": 4750,
            "##綱": 4751,
            "##現": 4752,
            "##詩": 4753,
            "##気": 4754,
            "##工": 4755,
            "##開": 4756,
            "##ܪ": 4757,
            "##ܡ": 4758,
            "##ܬ": 4759,
            "##ܐ": 4760,
            "##武": 4761,
            "##經": 4762,
            "##總": 4763,
            "##要": 4764,
            "##վ": 4765,
            "##ը": 4766,
            "##ᵿ": 4767,
            "##平": 4768,
            "##王": 4769,
            "##ब": 4770,
            "##種": 4771,
            "##菜": 4772,
            "##শ": 4773,
            "##县": 4774,
            "##净": 4775,
            "##瀬": 4776,
            "##賊": 4777,
            "##召": 4778,
            "##鴻": 4779,
            "##著": 4780,
            "##श": 4781,
            "##ठ": 4782,
            "##沫": 4783,
            "##ⴻ": 4784,
            "##ⴳ": 4785,
            "##ⵎ": 4786,
            "##ⴰ": 4787,
            "##ⵜ": 4788,
            "##史": 4789,
            "##眼": 4790,
            "##竜": 4791,
            "##政": 4792,
            "##宗": 4793,
            "##野": 4794,
            "##幸": 4795,
            "##ל": 4796,
            "##ן": 4797,
            "##塚": 4798,
            "##志": 4799,
            "##合": 4800,
            "##豆": 4801,
            "##ʈ": 4802,
            "##ふ": 4803,
            "##อ": 4804,
            "##ฉ": 4805,
            "##連": 4806,
            "##鎖": 4807,
            "##街": 4808,
            "##角": 4809,
            "##प": 4810,
            "##倉": 4811,
            "##村": 4812,
            "##贝": 4813,
            "##娜": 4814,
            "##ひ": 4815,
            "##里": 4816,
            "##良": 4817,
            "##防": 4818,
            "##酷": 4819,
            "##ᅣ": 4820,
            "##料": 4821,
            "##室": 4822,
            "##お": 4823,
            "##ក": 4824,
            "##រ": 4825,
            "##ណ": 4826,
            "##ប": 4827,
            "##ទ": 4828,
            "##ម": 4829,
            "##ɜ": 4830,
            "##ǂ": 4831,
            "##外": 4832,
            "##交": 4833,
            "##官": 4834,
            "##使": 4835,
            "##写": 4836,
            "##帖": 4837,
            "##画": 4838,
            "##µ": 4839,
            "##ᄃ": 4840,
            "##家": 4841,
            "##槐": 4842,
            "##ʋ": 4843,
            "##庭": 4844,
            "##傭": 4845,
            "##夏": 4846,
            "##য": 4847,
            "##赤": 4848,
            "##壁": 4849,
            "##ぇ": 4850,
            "##熱": 4851,
            "##爾": 4852,
            "##楼": 4853,
            "##吧": 4854,
            "##孩": 4855,
            "##振": 4856,
            "##鐸": 4857,
            "##ˀ": 4858,
            "##所": 4859,
            "##描": 4860,
            "##马": 4861,
            "##岛": 4862,
            "##屿": 4863,
            "##端": 4864,
            "##判": 4865,
            "##决": 4866,
            "##川": 4867,
            "##议": 4868,
            "##本": 4869,
            "##國": 4870,
            "##賈": 4871,
            "##თ": 4872,
            "##方": 4873,
            "##み": 4874,
            "##駒": 4875,
            "##技": 4876,
            "##ன": 4877,
            "##ர": 4878,
            "##த": 4879,
            "##ப": 4880,
            "##升": 4881,
            "##傳": 4882,
            "##ส": 4883,
            "##ธ": 4884,
            "##楽": 4885,
            "##音": 4886,
            "##旋": 4887,
            "##出": 4888,
            "##ਸ": 4889,
            "##ਝ": 4890,
            "##弁": 4891,
            "##当": 4892,
            "##惑": 4893,
            "##ւ": 4894,
            "##թ": 4895,
            "##津": 4896,
            "##漫": 4897,
            "##ф": 4898,
            "##矢": 4899,
            "##ণ": 4900,
            "##ฤ": 4901,
            "##意": 4902,
            "##ம": 4903,
            "##ꦲ": 4904,
            "##ꦠ": 4905,
            "##叔": 4906,
            "##ט": 4907,
            "##ด": 4908,
            "##莉": 4909,
            "##秀": 4910,
            "##ಟ": 4911,
            "##ಕ": 4912,
            "##恒": 4913,
            "##夫": 4914,
            "##ռ": 4915,
            "##ջ": 4916,
            "##և": 4917,
            "##周": 4918,
            "##宫": 4919,
            "##博": 4920,
            "##院": 4921,
            "##ᄑ": 4922,
            "##解": 4923,
            "##決": 4924,
            "##ச": 4925,
            "##வ": 4926,
            "##ರ": 4927,
            "##ದ": 4928,
            "##ಸ": 4929,
            "##将": 4930,
            "##军": 4931,
            "##跖": 4932,
            "##侠": 4933,
            "##љ": 4934,
            "##ɓ": 4935,
            "##ک": 4936,
            "##宵": 4937,
            "##森": 4938,
            "##遁": 4939,
            "##ᚢ": 4940,
            "##ᛏ": 4941,
            "##ᚨ": 4942,
            "##ᚾ": 4943,
            "##ᛁ": 4944,
            "##ᛟ": 4945,
            "##ᚹ": 4946,
            "##詞": 4947,
            "##囃": 4948,
            "##œ": 4949,
            "##民": 4950,
            "##立": 4951,
            "##其": 4952,
            "##迈": 4953,
            "##វ": 4954,
            "##ត": 4955,
            "##ք": 4956,
            "##典": 4957,
            "##醫": 4958,
            "##令": 4959,
            "##ת": 4960,
            "##步": 4961,
            "##賢": 4962,
            "##ᄌ": 4963,
            "##ᄆ": 4964,
            "##ᆨ": 4965,
            "##華": 4966,
            "##贤": 4967,
            "##阁": 4968,
            "##囂": 4969,
            "##屬": 4970,
            "##久": 4971,
            "##風": 4972,
            "##も": 4973,
            "##奇": 4974,
            "##妙": 4975,
            "##わ": 4976,
            "##ʱ": 4977,
            "##代": 4978,
            "##師": 4979,
            "##葉": 4980,
            "##問": 4981,
            "##洲": 4982,
            "##跳": 4983,
            "##還": 4984,
            "##願": 4985,
            "##例": 4986,
            "##齋": 4987,
            "##器": 4988,
            "##玄": 4989,
            "##元": 4990,
            "##油": 4991,
            "##釈": 4992,
            "##迦": 4993,
            "##様": 4994,
            "##龍": 4995,
            "##ھ": 4996,
            "##狗": 4997,
            "##名": 4998,
            "##考": 4999,
            "##ᄂ": 5000,
            "##沒": 5001,
            "##想": 5002,
            "##到": 5003,
            "##ʐ": 5004,
            "##书": 5005,
            "##ほ": 5006,
            "##満": 5007,
            "##足": 5008,
            "##あ": 5009,
            "##闕": 5010,
            "##票": 5011,
            "##促": 5012,
            "##會": 5013,
            "##.": 5014,
            "##尾": 5015,
            "##狐": 5016,
            "##火": 5017,
            "##受": 5018,
            "##建": 5019,
            "##联": 5020,
            "##鞠": 5021,
            "##朝": 5022,
            "##爱": 5023,
            "##无": 5024,
            "##有": 5025,
            "##模": 5026,
            "##ᅯ": 5027,
            "##ᅭ": 5028,
            "##賀": 5029,
            "##ई": 5030,
            "##祚": 5031,
            "##ศ": 5032,
            "##書": 5033,
            "##定": 5034,
            "##辨": 5035,
            "##正": 5036,
            "##愛": 5037,
            "##梁": 5038,
            "##כ": 5039,
            "##צ": 5040,
            "##垣": 5041,
            "##筍": 5042,
            "##ｉ": 5043,
            "##力": 5044,
            "##玉": 5045,
            "##乱": 5046,
            "##雳": 5047,
            "##住": 5048,
            "##宅": 5049,
            "##ʉ": 5050,
            "##期": 5051,
            "##鋼": 5052,
            "##俊": 5053,
            "##頒": 5054,
            "##质": 5055,
            "##佐": 5056,
            "##彼": 5057,
            "##碼": 5058,
            "##頭": 5059,
            "##焉": 5060,
            "##へ": 5061,
            "##序": 5062,
            "##曲": 5063,
            "##源": 5064,
            "##氏": 5065,
            "##科": 5066,
            "##医": 5067,
            "##製": 5068,
            "##輿": 5069,
            "##全": 5070,
            "##圖": 5071,
            "##飾": 5072,
            "##篇": 5073,
            "##滋": 5074,
            "##מ": 5075,
            "##ɬ": 5076,
            "##儡": 5077,
            "##珂": 5078,
            "##瀛": 5079,
            "##ʕ": 5080,
            "##ល": 5081,
            "##ង": 5082,
            "##男": 5083,
            "##救": 5084,
            "##ᅮ": 5085,
            "##ᄐ": 5086,
            "##畫": 5087,
            "##ꜜ": 5088,
            "##梅": 5089,
            "##協": 5090,
            "##商": 5091,
            "##議": 5092,
            "##籌": 5093,
            "##備": 5094,
            "##番": 5095,
            "##ष": 5096,
            "##敦": 5097,
            "##圏": 5098,
            "##ჯ": 5099,
            "##思": 5100,
            "##念": 5101,
            "##屑": 5102,
            "##拉": 5103,
            "##口": 5104,
            "##ˢ": 5105,
            "##ゅ": 5106,
            "##ɺ": 5107,
            "##ᆸ": 5108,
            "##来": 5109,
            "##研": 5110,
            "##究": 5111,
            "##房": 5112,
            "##ল": 5113,
            "##প": 5114,
            "##ৰ": 5115,
            "##曜": 5116,
            "##長": 5117,
            "##明": 5118,
            "##罠": 5119,
            "##भ": 5120,
            "##錬": 5121,
            "##金": 5122,
            "##โ": 5123,
            "##髪": 5124,
            "##さ": 5125,
            "##知": 5126,
            "##ﬁ": 5127,
            "##つ": 5128,
            "##何": 5129,
            "##度": 5130,
            "##ព": 5131,
            "##ɖ": 5132,
            "##文": 5133,
            "##ⵙ": 5134,
            "##ⴽ": 5135,
            "##ⵡ": 5136,
            "##ⵉ": 5137,
            "##գ": 5138,
            "##米": 5139,
            "##थ": 5140,
            "##過": 5141,
            "##ᇂ": 5142,
            "##侯": 5143,
            "##穌": 5144,
            "##ত": 5145,
            "##ภ": 5146,
            "##荪": 5147,
            "##十": 5148,
            "##五": 5149,
            "##銀": 5150,
            "##供": 5151,
            "##恩": 5152,
            "##や": 5153,
            "##百": 5154,
            "##潜": 5155,
            "##水": 5156,
            "##盆": 5157,
            "##而": 5158,
            "##歌": 5159,
            "##琪": 5160,
            "##ⴼ": 5161,
            "##劇": 5162,
            "##宝": 5163,
            "##死": 5164,
            "##彦": 5165,
            "##介": 5166,
            "##ղ": 5167,
            "##փ": 5168,
            "##羽": 5169,
            "##先": 5170,
            "##昌": 5171,
            "##福": 5172,
            "##漠": 5173,
            "##ܒ": 5174,
            "##探": 5175,
            "##紅": 5176,
            "##牡": 5177,
            "##丹": 5178,
            "##噛": 5179,
            "##指": 5180,
            "##圧": 5181,
            "##फ": 5182,
            "##雜": 5183,
            "##誌": 5184,
            "##継": 5185,
            "##網": 5186,
            "##白": 5187,
            "##炬": 5188,
            "##台": 5189,
            "##獄": 5190,
            "##頃": 5191,
            "##讐": 5192,
            "##ᆺ": 5193,
            "##去": 5194,
            "##非": 5195,
            "##調": 5196,
            "##坂": 5197,
            "##選": 5198,
            "##唐": 5199,
            "##助": 5200,
            "##微": 5201,
            "##պ": 5202,
            "##釗": 5203,
            "##綸": 5204,
            "##綺": 5205,
            "##郡": 5206,
            "##蕃": 5207,
            "##四": 5208,
            "##屋": 5209,
            "##庫": 5210,
            "##找": 5211,
            "##自": 5212,
            "##չ": 5213,
            "##ტ": 5214,
            "##ถ": 5215,
            "##ɦ": 5216,
            "##砲": 5217,
            "##鷓": 5218,
            "##鴣": 5219,
            "##農": 5220,
            "##路": 5221,
            "##堂": 5222,
            "##ᅬ": 5223,
            "##章": 5224,
            "##ག": 5225,
            "##ལ": 5226,
            "##ᅦ": 5227,
            "##深": 5228,
            "##ص": 5229,
            "##ⵣ": 5230,
            "##ⵖ": 5231,
            "##青": 5232,
            "##弟": 5233,
            "##独": 5234,
            "##吟": 5235,
            "##廿": 5236,
            "##仙": 5237,
            "##掛": 5238,
            "##能": 5239,
            "##қ": 5240,
            "##震": 5241,
            "##灾": 5242,
            "##后": 5243,
            "##恢": 5244,
            "##复": 5245,
            "##重": 5246,
            "##对": 5247,
            "##支": 5248,
            "##援": 5249,
            "##案": 5250,
            "##华": 5251,
            "##体": 5252,
            "##操": 5253,
            "##घ": 5254,
            "##如": 5255,
            "##礮": 5256,
            "##ల": 5257,
            "##埔": 5258,
            "##也": 5259,
            "##螺": 5260,
            "##ར": 5261,
            "##ʽ": 5262,
            "##ङ": 5263,
            "##桑": 5264,
            "##鳳": 5265,
            "##ѧ": 5266,
            "##ﮭ": 5267,
            "##ﻔ": 5268,
            "##漏": 5269,
            "##ᛇ": 5270,
            "##ᛋ": 5271,
            "##ᛚ": 5272,
            "##ᚻ": 5273,
            "##ᛠ": 5274,
            "##ᚱ": 5275,
            "##ᛞ": 5276,
            "##覚": 5277,
            "##隣": 5278,
            "##素": 5279,
            "##氣": 5280,
            "##象": 5281,
            "##占": 5282,
            "##落": 5283,
            "##格": 5284,
            "##字": 5285,
            "##岡": 5286,
            "##藩": 5287,
            "##ђ": 5288,
            "##声": 5289,
            "##梓": 5290,
            "##𒀳": 5291,
            "##吞": 5292,
            "##茂": 5293,
            "##輔": 5294,
            "##達": 5295,
            "##疆": 5296,
            "##繹": 5297,
            "##統": 5298,
            "##浮": 5299,
            "##挥": 5300,
            "##غ": 5301,
            "##理": 5302,
            "##夜": 5303,
            "##ข": 5304,
            "##事": 5305,
            "##騒": 5306,
            "##ժ": 5307,
            "##終": 5308,
            "##孟": 5309,
            "##堅": 5310,
            "##慶": 5311,
            "##分": 5312,
            "##件": 5313,
            "##妹": 5314,
            "##翔": 5315,
            "##勢": 5316,
            "##湾": 5317,
            "##始": 5318,
            "##僕": 5319,
            "##刻": 5320,
            "##む": 5321,
            "##北": 5322,
            "##财": 5323,
            "##际": 5324,
            "##河": 5325,
            "##殻": 5326,
            "##隊": 5327,
            "##荘": 5328,
            "##ץ": 5329,
            "##鳥": 5330,
            "##健": 5331,
            "##雄": 5332,
            "##გ": 5333,
            "##施": 5334,
            "##設": 5335,
            "##盤": 5336,
            "##句": 5337,
            "##心": 5338,
            "##為": 5339,
            "##陵": 5340,
            "##香": 5341,
            "##秘": 5342,
            "##密": 5343,
            "##首": 5344,
            "##縊": 5345,
            "##ﬂ": 5346,
            "##派": 5347,
            "##න": 5348,
            "##ර": 5349,
            "##ධ": 5350,
            "##ප": 5351,
            "##旦": 5352,
            "##ತ": 5353,
            "##陽": 5354,
            "##杯": 5355,
            "##东": 5356,
            "##匠": 5357,
            "##棺": 5358,
            "##ѹ": 5359,
            "##船": 5360,
            "##団": 5361,
            "##র": 5362,
            "##ন": 5363,
            "##懷": 5364,
            "##敏": 5365,
            "##脚": 5366,
            "##咲": 5367,
            "##ⁿ": 5368,
            "##奈": 5369,
            "##降": 5370,
            "##綜": 5371,
            "##善": 5372,
            "##用": 5373,
            "##聲": 5374,
            "##บ": 5375,
            "##六": 5376,
            "##右": 5377,
            "##常": 5378,
            "##市": 5379,
            "##ג": 5380,
            "##奥": 5381,
            "##綯": 5382,
            "##ந": 5383,
            "##ங": 5384,
            "##勇": 5385,
            "##瑙": 5386,
            "##勒": 5387,
            "##ც": 5388,
            "##尼": 5389,
            "##泗": 5390,
            "##臺": 5391,
            "##校": 5392,
            "##陛": 5393,
            "##補": 5394,
            "##習": 5395,
            "##病": 5396,
            "##枯": 5397,
            "##廻": 5398,
            "##竹": 5399,
            "##間": 5400,
            "##ས": 5401,
            "##过": 5402,
            "##檻": 5403,
            "##溜": 5404,
            "##蝶": 5405,
            "##ɮ": 5406,
            "##融": 5407,
            "##ʳ": 5408,
            "##ے": 5409,
            "##椒": 5410,
            "##策": 5411,
            "##永": 5412,
            "##督": 5413,
            "##ደ": 5414,
            "##ሰ": 5415,
            "##师": 5416,
            "##塔": 5417,
            "##廣": 5418,
            "##府": 5419,
            "##菱": 5420,
            "##験": 5421,
            "##童": 5422,
            "##笠": 5423,
            "##茸": 5424,
            "##勃": 5425,
            "##抜": 5426,
            "##刀": 5427,
            "##斎": 5428,
            "##戯": 5429,
            "##郛": 5430,
            "##今": 5431,
            "##利": 5432,
            "##波": 5433,
            "##與": 5434,
            "##豹": 5435,
            "##範": 5436,
            "##災": 5437,
            "##ಶ": 5438,
            "##ಲ": 5439,
            "##衝": 5440,
            "##鬥": 5441,
            "##歲": 5442,
            "##箭": 5443,
            "##尉": 5444,
            "##淵": 5445,
            "##和": 5446,
            "##轩": 5447,
            "##俱": 5448,
            "##乐": 5449,
            "##棋": 5450,
            "##租": 5451,
            "##币": 5452,
            "##绍": 5453,
            "##坤": 5454,
            "##宿": 5455,
            "##実": 5456,
            "##板": 5457,
            "##同": 5458,
            "##ɻ": 5459,
            "##屯": 5460,
            "##警": 5461,
            "##察": 5462,
            "##幕": 5463,
            "##罗": 5464,
            "##ｒ": 5465,
            "##ｐ": 5466,
            "##ｇ": 5467,
            "##籍": 5468,
            "##映": 5469,
            "##叉": 5470,
            "##誕": 5471,
            "##姉": 5472,
            "##儀": 5473,
            "##骨": 5474,
            "##孫": 5475,
            "##述": 5476,
            "##ʎ": 5477,
            "##条": 5478,
            "##ᅴ": 5479,
            "##耕": 5480,
            "##涼": 5481,
            "##島": 5482,
            "##私": 5483,
            "##塊": 5484,
            "##臣": 5485,
            "##虎": 5486,
            "##宮": 5487,
            "##閨": 5488,
            "##將": 5489,
            "##軍": 5490,
            "##高": 5491,
            "##劣": 5492,
            "##等": 5493,
            "##果": 5494,
            "##ｘ": 5495,
            "##ө": 5496,
            "##征": 5497,
            "##డ": 5498,
            "##ర": 5499,
            "##గ": 5500,
            "##言": 5501,
            "##必": 5502,
            "##稽": 5503,
            "##克": 5504,
            "##盒": 5505,
            "##灯": 5506,
            "##泡": 5507,
            "##阳": 5508,
            "##沌": 5509,
            "##鰐": 5510,
            "##咫": 5511,
            "##烏": 5512,
            "##務": 5513,
            "##規": 5514,
            "##則": 5515,
            "##話": 5516,
            "##潤": 5517,
            "##縣": 5518,
            "##జ": 5519,
            "##目": 5520,
            "##嬢": 5521,
            "##祈": 5522,
            "##溪": 5523,
            "##錄": 5524,
            "##ɰ": 5525,
            "##հ": 5526,
            "##休": 5527,
            "##程": 5528,
            "##漂": 5529,
            "##渦": 5530,
            "##七": 5531,
            "##侍": 5532,
            "##堯": 5533,
            "##ශ": 5534,
            "##径": 5535,
            "##印": 5536,
            "##麗": 5537,
            "##ऽ": 5538,
            "##杲": 5539,
            "##節": 5540,
            "##可": 5541,
            "##視": 5542,
            "##遼": 5543,
            "##շ": 5544,
            "##磅": 5545,
            "##性": 5546,
            "##数": 5547,
            "##乌": 5548,
            "##贼": 5549,
            "##栗": 5550,
            "##延": 5551,
            "##壽": 5552,
            "##共": 5553,
            "##濃": 5554,
            "##甜": 5555,
            "##ਜ": 5556,
            "##ਲ": 5557,
            "##魯": 5558,
            "##閣": 5559,
            "##役": 5560,
            "##隸": 5561,
            "##那": 5562,
            "##ำ": 5563,
            "##ญ": 5564,
            "##焼": 5565,
            "##ใ": 5566,
            "##社": 5567,
            "##伟": 5568,
            "##摩": 5569,
            "##夷": 5570,
            "##ய": 5571,
            "##魚": 5572,
            "##放": 5573,
            "##送": 5574,
            "##ฟ": 5575,
            "##º": 5576,
            "##題": 5577,
            "##検": 5578,
            "##証": 5579,
            "##告": 5580,
            "##煌": 5581,
            "##ख": 5582,
            "##ฮ": 5583,
            "##土": 5584,
            "##抄": 5585,
            "##傅": 5586,
            "##ヨ": 5587,
            "##切": 5588,
            "##符": 5589,
            "##岩": 5590,
            "##ண": 5591,
            "##閏": 5592,
            "##ぅ": 5593,
            "##列": 5594,
            "##墓": 5595,
            "##ड": 5596,
            "##谷": 5597,
            "##愁": 5598,
            "##润": 5599,
            "##宙": 5600,
            "##踊": 5601,
            "##补": 5602,
            "##લ": 5603,
            "##સ": 5604,
            "##ર": 5605,
            "##芳": 5606,
            "##چ": 5607,
            "##ڠ": 5608,
            "##若": 5609,
            "##芬": 5610,
            "##掲": 5611,
            "##示": 5612,
            "##蕩": 5613,
            "##ழ": 5614,
            "##ฑ": 5615,
            "##盗": 5616,
            "##托": 5617,
            "##都": 5618,
            "##承": 5619,
            "##请": 5620,
            "##ର": 5621,
            "##ञ": 5622,
            "##活": 5623,
            "##臨": 5624,
            "##麾": 5625,
            "##臂": 5626,
            "##膀": 5627,
            "##鉄": 5628,
            "##儿": 5629,
            "##榔": 5630,
            "##嶼": 5631,
            "##ಮ": 5632,
            "##ಡ": 5633,
            "##इ": 5634,
            "##吉": 5635,
            "##彩": 5636,
            "##洋": 5637,
            "##є": 5638,
            "##由": 5639,
            "##ձ": 5640,
            "##械": 5641,
            "##鎧": 5642,
            "##@": 5643,
            "##స": 5644,
            "##త": 5645,
            "##蔵": 5646,
            "##ఠ": 5647,
            "##然": 5648,
            "##柩": 5649,
            "##結": 5650,
            "##婚": 5651,
            "##采": 5652,
            "##菉": 5653,
            "##質": 5654,
            "##顯": 5655,
            "##扇": 5656,
            "##宜": 5657,
            "##静": 5658,
            "##寂": 5659,
            "##靂": 5660,
            "##容": 5661,
            "##再": 5662,
            "##約": 5663,
            "##束": 5664,
            "##摸": 5665,
            "##澄": 5666,
            "##育": 5667,
            "##無": 5668,
            "##双": 5669,
            "##蕨": 5670,
            "##舞": 5671,
            "##臚": 5672,
            "##贵": 5673,
            "##早": 5674,
            "##苗": 5675,
            "##戸": 5676,
            "##央": 5677,
            "##卸": 5678,
            "##売": 5679,
            "##ན": 5680,
            "##絵": 5681,
            "##興": 5682,
            "##枝": 5683,
            "##旭": 5684,
            "##旗": 5685,
            "##ብ": 5686,
            "##蕉": 5687,
            "##改": 5688,
            "##甲": 5689,
            "##寧": 5690,
            "##郷": 5691,
            "##巳": 5692,
            "##泣": 5693,
            "##蘄": 5694,
            "##納": 5695,
            "##观": 5696,
            "##云": 5697,
            "##照": 5698,
            "##磨": 5699,
            "##呂": 5700,
            "##変": 5701,
            "##ヌ": 5702,
            "##游": 5703,
            "##塘": 5704,
            "##樂": 5705,
            "##守": 5706,
            "##զ": 5707,
            "##ම": 5708,
            "##ல": 5709,
            "##謡": 5710,
            "##پ": 5711,
            "##ᄇ": 5712,
            "##覺": 5713,
            "##株": 5714,
            "##制": 5715,
            "##铜": 5716,
            "##松": 5717,
            "##復": 5718,
            "##計": 5719,
            "##蝉": 5720,
            "##脱": 5721,
            "##壳": 5722,
            "##執": 5723,
            "##嘉": 5724,
            "##গ": 5725,
            "##维": 5726,
            "##衙": 5727,
            "##輪": 5728,
            "##恥": 5729,
            "##珠": 5730,
            "##血": 5731,
            "##湖": 5732,
            "##戰": 5733,
            "##鬪": 5734,
            "##ף": 5735,
            "##巻": 5736,
            "##八": 5737,
            "##乘": 5738,
            "##舎": 5739,
            "##打": 5740,
            "##跡": 5741,
            "##ဟ": 5742,
            "##ဝ": 5743,
            "##ယ": 5744,
            "##က": 5745,
            "##誦": 5746,
            "##唱": 5747,
            "##沂": 5748,
            "##沖": 5749,
            "##身": 5750,
            "##琴": 5751,
            "##绮": 5752,
            "##耳": 5753,
            "##晉": 5754,
            "##栖": 5755,
            "##လ": 5756,
            "##မ": 5757,
            "##爆": 5758,
            "##不": 5759,
            "##薔": 5760,
            "##處": 5761,
            "##片": 5762,
            "##焦": 5763,
            "##莞": 5764,
            "##失": 5765,
            "##好": 5766,
            "##姫": 5767,
            "##丁": 5768,
            "##堡": 5769,
            "##友": 5770,
            "##雷": 5771,
            "##寶": 5772,
            "##止": 5773,
            "##亚": 5774,
            "##细": 5775,
            "##喝": 5776,
            "##宸": 5777,
            "##红": 5778,
            "##汤": 5779,
            "##够": 5780,
            "##计": 5781,
            "##划": 5782,
            "##浦": 5783,
            "##装": 5784,
            "##巡": 5785,
            "##未": 5786,
            "##來": 5787,
            "##化": 5788,
            "##店": 5789,
            "##ɽ": 5790,
            "##芸": 5791,
            "##情": 5792,
            "##丑": 5793,
            "##僑": 5794,
            "##肉": 5795,
            "##厦": 5796,
            "##鳩": 5797,
            "##英": 5798,
            "##ซ": 5799,
            "##棚": 5800,
            "##న": 5801,
            "##業": 5802,
            "##窟": 5803,
            "##午": 5804,
            "##後": 5805,
            "##脈": 5806,
            "##寄": 5807,
            "##裁": 5808,
            "##残": 5809,
            "##闘": 5810,
            "##挑": 5811,
            "##帰": 5812,
            "##叶": 5813,
            "##階": 5814,
            "##狛": 5815,
            "##剧": 5816,
            "##薙": 5817,
            "##报": 5818,
            "##ฝ": 5819,
            "##为": 5820,
            "##咙": 5821,
            "##錡": 5822,
            "##篤": 5823,
            "##論": 5824,
            "##叡": 5825,
            "##邑": 5826,
            "##夤": 5827,
            "##卜": 5828,
            "##ရ": 5829,
            "##တ": 5830,
            "##ү": 5831,
            "##椿": 5832,
            "##ぉ": 5833,
            "##ट": 5834,
            "##貓": 5835,
            "##բ": 5836,
            "##頌": 5837,
            "##鼠": 5838,
            "##ள": 5839,
            "##膺": 5840,
            "##昏": 5841,
            "##差": 5842,
            "##点": 5843,
            "##壓": 5844,
            "##尸": 5845,
            "##ច": 5846,
            "##哲": 5847,
            "##申": 5848,
            "##祿": 5849,
            "##勳": 5850,
            "##應": 5851,
            "##烧": 5852,
            "##仔": 5853,
            "##聖": 5854,
            "##館": 5855,
            "##酸": 5856,
            "##ᶦ": 5857,
            "##ᄏ": 5858,
            "##革": 5859,
            "##组": 5860,
            "##琮": 5861,
            "##协": 5862,
            "##筹": 5863,
            "##备": 5864,
            "##祖": 5865,
            "##ⵓ": 5866,
            "##ⵔ": 5867,
            "##ˁ": 5868,
            "##孔": 5869,
            "##ں": 5870,
            "##涙": 5871,
            "##駿": 5872,
            "##甫": 5873,
            "##椅": 5874,
            "##ค": 5875,
            "##狂": 5876,
            "##引": 5877,
            "##ဇ": 5878,
            "##ʝ": 5879,
            "##时": 5880,
            "##跟": 5881,
            "##影": 5882,
            "##年": 5883,
            "##喚": 5884,
            "##獣": 5885,
            "##长": 5886,
            "##直": 5887,
            "##回": 5888,
            "##札": 5889,
            "##読": 5890,
            "##卿": 5891,
            "##難": 5892,
            "##庚": 5893,
            "##紀": 5894,
            "##駆": 5895,
            "##雪": 5896,
            "##വ": 5897,
            "##ശ": 5898,
            "##ক": 5899,
            "##羊": 5900,
            "##半": 5901,
            "##藏": 5902,
            "##ᠣ": 5903,
            "##ᡴ": 5904,
            "##ᡨ": 5905,
            "##ᠪ": 5906,
            "##ᡠ": 5907,
            "##ᡥ": 5908,
            "##ᠠ": 5909,
            "##樹": 5910,
            "##面": 5911,
            "##笨": 5912,
            "##嚣": 5913,
            "##概": 5914,
            "##紋": 5915,
            "##བ": 5916,
            "##職": 5917,
            "##拖": 5918,
            "##爲": 5919,
            "##泰": 5920,
            "##翱": 5921,
            "##槻": 5922,
            "##泊": 5923,
            "##卦": 5924,
            "##艶": 5925,
            "##起": 5926,
            "##町": 5927,
            "##奪": 5928,
            "##們": 5929,
            "##追": 5930,
            "##卫": 5931,
            "##迪": 5932,
            "##洞": 5933,
            "##筆": 5934,
            "##談": 5935,
            "##ぃ": 5936,
            "##ゆ": 5937,
            "##絡": 5938,
            "##匹": 5939,
            "##芦": 5940,
            "##ۍ": 5941,
            "##ѣ": 5942,
            "##ష": 5943,
            "##辿": 5944,
            "##尺": 5945,
            "##მ": 5946,
            "##ⵛ": 5947,
            "##颜": 5948,
            "##局": 5949,
            "##布": 5950,
            "##景": 5951,
            "##冬": 5952,
            "##父": 5953,
            "##厚": 5954,
            "##亡": 5955,
            "##霊": 5956,
            "##得": 5957,
            "##衡": 5958,
            "##咆": 5959,
            "##哮": 5960,
            "##拍": 5961,
            "##ভ": 5962,
            "##丙": 5963,
            "##総": 5964,
            "##鈍": 5965,
            "##翁": 5966,
            "##滑": 5967,
            "##朏": 5968,
            "##發": 5969,
            "##ட": 5970,
            "##烦": 5971,
            "##恼": 5972,
            "##渊": 5973,
            "##亜": 5974,
            "##細": 5975,
            "##酒": 5976,
            "##多": 5977,
            "##葵": 5978,
            "##澤": 5979,
            "##晶": 5980,
            "##畑": 5981,
            "##騎": 5982,
            "##ᠨ": 5983,
            "##ᠵ": 5984,
            "##ᠰ": 5985,
            "##ᡳ": 5986,
            "##乎": 5987,
            "##銃": 5988,
            "##ฎ": 5989,
            "##蓑": 5990,
            "##蓮": 5991,
            "##弓": 5992,
            "##戎": 5993,
            "##旅": 5994,
            "##秋": 5995,
            "##雎": 5996,
            "##籠": 5997,
            "##断": 5998,
            "##烟": 5999,
            "##气": 6000,
            "##関": 6001,
            "##係": 6002,
            "##抱": 6003,
            "##ⵇ": 6004,
            "##ⵍ": 6005,
            "##牌": 6006,
            "##营": 6007,
            "##ɵ": 6008,
            "##雕": 6009,
            "##凰": 6010,
            "##ሐ": 6011,
            "##ዘ": 6012,
            "##በ": 6013,
            "##彌": 6014,
            "##ᅱ": 6015,
            "##組": 6016,
            "##桥": 6017,
            "##緒": 6018,
            "##絶": 6019,
            "##壮": 6020,
            "##炼": 6021,
            "##铁": 6022,
            "##泾": 6023,
            "##巴": 6024,
            "##旺": 6025,
            "##溫": 6026,
            "##黨": 6027,
            "##沛": 6028,
            "##宁": 6029,
            "##鬼": 6030,
            "##ኢ": 6031,
            "##ት": 6032,
            "##ዮ": 6033,
            "##ጵ": 6034,
            "##ያ": 6035,
            "##খ": 6036,
            "##黒": 6037,
            "##只": 6038,
            "##痴": 6039,
            "##芝": 6040,
            "##命": 6041,
            "##狼": 6042,
            "##鮮": 6043,
            "##敵": 6044,
            "##變": 6045,
            "##蒿": 6046,
            "##岸": 6047,
            "##柱": 6048,
            "##拘": 6049,
            "##留": 6050,
            "##營": 6051,
            "##攻": 6052,
            "##略": 6053,
            "##鍵": 6054,
            "##诉": 6055,
            "##隠": 6056,
            "##ฐ": 6057,
            "##瑾": 6058,
            "##狩": 6059,
            "##缽": 6060,
            "##底": 6061,
            "##甘": 6062,
            "##岭": 6063,
            "##刘": 6064,
            "##亦": 6065,
            "##婷": 6066,
            "##扉": 6067,
            "##杖": 6068,
            "##ල": 6069,
            "##穂": 6070,
            "##舍": 6071,
            "##ᵀ": 6072,
            "##虛": 6073,
            "##致": 6074,
            "##訳": 6075,
            "##桜": 6076,
            "##軽": 6077,
            "##沙": 6078,
            "##古": 6079,
            "##注": 6080,
            "##ᄈ": 6081,
            "##担": 6082,
            "##ʑ": 6083,
            "##鼎": 6084,
            "##筐": 6085,
            "##斜": 6086,
            "##彙": 6087,
            "##股": 6088,
            "##梭": 6089,
            "##境": 6090,
            "##`": 6091,
            "##皮": 6092,
            "##ܕ": 6093,
            "##以": 6094,
            "##傘": 6095,
            "##ᚷ": 6096,
            "##ᚩ": 6097,
            "##ᚦ": 6098,
            "##鹿": 6099,
            "##寔": 6100,
            "##铎": 6101,
            "##展": 6102,
            "##棟": 6103,
            "##從": 6104,
            "##区": 6105,
            "##脩": 6106,
            "##ܝ": 6107,
            "##ܢ": 6108,
            "##蘭": 6109,
            "##站": 6110,
            "##蠻": 6111,
            "##牢": 6112,
            "##減": 6113,
            "##ᛗ": 6114,
            "##箱": 6115,
            "##ⵏ": 6116,
            "##ｃ": 6117,
            "##ｄ": 6118,
            "##條": 6119,
            "##梦": 6120,
            "##憑": 6121,
            "##ɭ": 6122,
            "##迷": 6123,
            "##盘": 6124,
            "##弹": 6125,
            "##奴": 6126,
            "##হ": 6127,
            "##ʹ": 6128,
            "##嫁": 6129,
            "##鋒": 6130,
            "##背": 6131,
            "##裝": 6132,
            "##陈": 6133,
            "##剛": 6134,
            "##葆": 6135,
            "##榮": 6136,
            "##呪": 6137,
            "##ქ": 6138,
            "##ᄎ": 6139,
            "##植": 6140,
            "##ゑ": 6141,
            "##憎": 6142,
            "##荻": 6143,
            "##哉": 6144,
            "##ﮮ": 6145,
            "##狸": 6146,
            "##精": 6147,
            "##ſ": 6148,
            "##皿": 6149,
            "##敷": 6150,
            "##刷": 6151,
            "##表": 6152,
            "##ሥ": 6153,
            "##ሓ": 6154,
            "##牛": 6155,
            "##徽": 6156,
            "##亞": 6157,
            "##乙": 6158,
            "##淇": 6159,
            "##,": 6160,
            "##妖": 6161,
            "##ষ": 6162,
            "##そ": 6163,
            "##醒": 6164,
            "##姿": 6165,
            "##灰": 6166,
            "##ជ": 6167,
            "##ធ": 6168,
            "##យ": 6169,
            "##伊": 6170,
            "##算": 6171,
            "##貫": 6172,
            "##柏": 6173,
            "##左": 6174,
            "##牧": 6175,
            "##荼": 6176,
            "##ⵃ": 6177,
            "##ⵕ": 6178,
            "##妇": 6179,
            "##狀": 6180,
            "##ለ": 6181,
            "##苑": 6182,
            "##聚": 6183,
            "##暁": 6184,
            "##遺": 6185,
            "##愚": 6186,
            "##燈": 6187,
            "##晴": 6188,
            "##涵": 6189,
            "##ϟ": 6190,
            "##鳴": 6191,
            "##ഹ": 6192,
            "##ን": 6193,
            "##ገ": 6194,
            "##ድ": 6195,
            "##獻": 6196,
            "##ҷ": 6197,
            "##ﬀ": 6198,
            "##尚": 6199,
            "##紹": 6200,
            "##維": 6201,
            "##芒": 6202,
            "##郑": 6203,
            "##玩": 6204,
            "##具": 6205,
            "##厂": 6206,
            "##迄": 6207,
            "##載": 6208,
            "##ผ": 6209,
            "##歡": 6210,
            "##პ": 6211,
            "##ƀ": 6212,
            "##食": 6213,
            "##緬": 6214,
            "##図": 6215,
            "##梏": 6216,
            "##吾": 6217,
            "##勅": 6218,
            "##ឫ": 6219,
            "##崇": 6220,
            "##వ": 6221,
            "##括": 6222,
            "##殊": 6223,
            "##添": 6224,
            "##ѯ": 6225,
            "##គ": 6226,
            "##叢": 6227,
            "##看": 6228,
            "##兩": 6229,
            "##個": 6230,
            "##壯": 6231,
            "##腎": 6232,
            "##創": 6233,
            "##荷": 6234,
            "##領": 6235,
            "##域": 6236,
            "##豪": 6237,
            "##瑞": 6238,
            "##据": 6239,
            "##与": 6240,
            "##启": 6241,
            "##賞": 6242,
            "##誘": 6243,
            "##拐": 6244,
            "##艺": 6245,
            "##蘅": 6246,
            "##燃": 6247,
            "##胞": 6248,
            "##最": 6249,
            "##雇": 6250,
            "##车": 6251,
            "##超": 6252,
            "##鐵": 6253,
            "##限": 6254,
            "##護": 6255,
            "##汗": 6256,
            "##ユ": 6257,
            "##帥": 6258,
            "##盏": 6259,
            "##脂": 6260,
            "##倪": 6261,
            "##禄": 6262,
            "##電": 6263,
            "##嵐": 6264,
            "##淑": 6265,
            "##ａ": 6266,
            "##ｌ": 6267,
            "##歓": 6268,
            "##誠": 6269,
            "##瓢": 6270,
            "##箪": 6271,
            "##択": 6272,
            "##靖": 6273,
            "##璽": 6274,
            "##九": 6275,
            "##届": 6276,
            "##季": 6277,
            "##运": 6278,
            "##动": 6279,
            "##禾": 6280,
            "##姑": 6281,
            "##օ": 6282,
            "##鼻": 6283,
            "##习": 6284,
            "##負": 6285,
            "##憶": 6286,
            "##ɘ": 6287,
            "##優": 6288,
            "##ര": 6289,
            "##ങ": 6290,
            "##裂": 6291,
            "##柆": 6292,
            "##ճ": 6293,
            "##悦": 6294,
            "##廷": 6295,
            "##歴": 6296,
            "##监": 6297,
            "##蔭": 6298,
            "##幽": 6299,
            "##楚": 6300,
            "##楠": 6301,
            "##温": 6302,
            "##爺": 6303,
            "##処": 6304,
            "##鹽": 6305,
            "##池": 6306,
            "##置": 6307,
            "##吸": 6308,
            "##輝": 6309,
            "##射": 6310,
            "##騷": 6311,
            "##続": 6312,
            "##査": 6313,
            "##修": 6314,
            "##巫": 6315,
            "##愍": 6316,
            "##帆": 6317,
            "##忍": 6318,
            "##瞬": 6319,
            "##邪": 6320,
            "##岐": 6321,
            "##刃": 6322,
            "##ڬ": 6323,
            "##彪": 6324,
            "##仲": 6325,
            "##裔": 6326,
            "##颗": 6327,
            "##朱": 6328,
            "##聯": 6329,
            "##圣": 6330,
            "##尋": 6331,
            "##ᅨ": 6332,
            "##标": 6333,
            "##均": 6334,
            "##犖": 6335,
            "##饼": 6336,
            "##ᡝ": 6337,
            "##ᡵ": 6338,
            "##材": 6339,
            "##鲤": 6340,
            "##礁": 6341,
            "##鷺": 6342,
            "##耶": 6343,
            "##齐": 6344,
            "##翻": 6345,
            "##坝": 6346,
            "##晋": 6347,
            "##第": 6348,
            "##靼": 6349,
            "##蓀": 6350,
            "##衣": 6351,
            "##开": 6352,
            "##浚": 6353,
            "##経": 6354,
            "##樸": 6355,
            "##彬": 6356,
            "##厥": 6357,
            "##觀": 6358,
            "##瑣": 6359,
            "##鹼": 6360,
            "##ɴ": 6361,
            "##ⴷ": 6362,
            "##座": 6363,
            "##橋": 6364,
            "##雅": 6365,
            "##گ": 6366,
            "##怒": 6367,
            "##驗": 6368,
            "##朋": 6369,
            "##滿": 6370,
            "##爪": 6371,
            "##消": 6372,
            "##暖": 6373,
            "##桃": 6374,
            "##鎮": 6375,
            "##མ": 6376,
            "##ܔ": 6377,
            "##簿": 6378,
            "##奐": 6379,
            "##籃": 6380,
            "##貝": 6381,
            "##劃": 6382,
            "##箇": 6383,
            "##誓": 6384,
            "##极": 6385,
            "##图": 6386,
            "##玲": 6387,
            "##ཛ": 6388,
            "##発": 6389,
            "##歷": 6390,
            "##參": 6391,
            "##資": 6392,
            "##祥": 6393,
            "##霞": 6394,
            "##罸": 6395,
            "##棍": 6396,
            "##急": 6397,
            "##宇": 6398,
            "##ɸ": 6399,
            "##坪": 6400,
            "##鋪": 6401,
            "##遊": 6402,
            "##持": 6403,
            "##ஸ": 6404,
            "##千": 6405,
            "##弐": 6406,
            "##拾": 6407,
            "##泥": 6408,
            "##头": 6409,
            "##鍋": 6410,
            "##ദ": 6411,
            "##怎": 6412,
            "##么": 6413,
            "##丈": 6414,
            "##憂": 6415,
            "##円": 6416,
            "##毅": 6417,
            "##憲": 6418,
            "##己": 6419,
            "##庁": 6420,
            "##ϕ": 6421,
            "##移": 6422,
            "##ɥ": 6423,
            "##辉": 6424,
            "##獅": 6425,
            "##嶺": 6426,
            "##ភ": 6427,
            "##ɤ": 6428,
            "##读": 6429,
            "##辆": 6430,
            "##裕": 6431,
            "##似": 6432,
            "##孛": 6433,
            "##份": 6434,
            "##鵡": 6435,
            "##护": 6436,
            "##悟": 6437,
            "##ჲ": 6438,
            "##換": 6439,
            "##借": 6440,
            "##皙": 6441,
            "##篋": 6442,
            "##及": 6443,
            "##伯": 6444,
            "##梯": 6445,
            "##粟": 6446,
            "##內": 6447,
            "##偵": 6448,
            "##隱": 6449,
            "##ך": 6450,
            "##邊": 6451,
            "##穗": 6452,
            "##櫓": 6453,
            "##附": 6454,
            "##閃": 6455,
            "##豬": 6456,
            "##幣": 6457,
            "##綾": 6458,
            "##献": 6459,
            "##祀": 6460,
            "##丘": 6461,
            "##讼": 6462,
            "##የ": 6463,
            "##铺": 6464,
            "##库": 6465,
            "##冉": 6466,
            "##閒": 6467,
            "##瑠": 6468,
            "##逢": 6469,
            "##碩": 6470,
            "##額": 6471,
            "##駙": 6472,
            "##ឯ": 6473,
            "##硝": 6474,
            "##仇": 6475,
            "##ȝ": 6476,
            "##謎": 6477,
            "##ដ": 6478,
            "##徹": 6479,
            "##析": 6480,
            "##钦": 6481,
            "##汝": 6482,
            "##适": 6483,
            "##樓": 6484,
            "##ನ": 6485,
            "##远": 6486,
            "##杏": 6487,
            "##雙": 6488,
            "##魄": 6489,
            "##撲": 6490,
            "##沼": 6491,
            "##禰": 6492,
            "##ስ": 6493,
            "##ታ": 6494,
            "##ቲ": 6495,
            "##ኖ": 6496,
            "##煙": 6497,
            "##ฏ": 6498,
            "##ᠯ": 6499,
            "##琬": 6500,
            "##芯": 6501,
            "##စ": 6502,
            "##ヶ": 6503,
            "##ከ": 6504,
            "##ነ": 6505,
            "##እ": 6506,
            "##这": 6507,
            "##割": 6508,
            "##ฬ": 6509,
            "##珍": 6510,
            "##药": 6511,
            "##ਵ": 6512,
            "##烙": 6513,
            "##親": 6514,
            "##课": 6515,
            "##准": 6516,
            "##伐": 6517,
            "##症": 6518,
            "##爭": 6519,
            "##滅": 6520,
            "##圻": 6521,
            "##湯": 6522,
            "##ƒ": 6523,
            "##逆": 6524,
            "##襲": 6525,
            "##環": 6526,
            "##问": 6527,
            "##ང": 6528,
            "##蠕": 6529,
            "##攝": 6530,
            "##詔": 6531,
            "##兜": 6532,
            "##肚": 6533,
            "##陣": 6534,
            "##虹": 6535,
            "##稚": 6536,
            "##幡": 6537,
            "##荒": 6538,
            "##彭": 6539,
            "##卡": 6540,
            "##戈": 6541,
            "##麥": 6542,
            "##斯": 6543,
            "##稷": 6544,
            "##怖": 6545,
            "##包": 6546,
            "##岬": 6547,
            "##ਹ": 6548,
            "##恭": 6549,
            "##ই": 6550,
            "##珙": 6551,
            "##ფ": 6552,
            "##豐": 6553,
            "##諭": 6554,
            "##返": 6555,
            "##県": 6556,
            "##浜": 6557,
            "##拏": 6558,
            "##蒲": 6559,
            "##爵": 6560,
            "##朗": 6561,
            "##罪": 6562,
            "##肖": 6563,
            "##ᶴ": 6564,
            "##祺": 6565,
            "##翠": 6566,
            "##霹": 6567,
            "##炮": 6568,
            "##譜": 6569,
            "##響": 6570,
            "##碗": 6571,
            "##粥": 6572,
            "##姚": 6573,
            "##给": 6574,
            "##进": 6575,
            "##处": 6576,
            "##莱": 6577,
            "##凤": 6578,
            "##盟": 6579,
            "##曆": 6580,
            "##撒": 6581,
            "##岚": 6582,
            "##狱": 6583,
            "##蒭": 6584,
            "##ថ": 6585,
            "##形": 6586,
            "##წ": 6587,
            "##蝕": 6588,
            "##仮": 6589,
            "##律": 6590,
            "##獵": 6591,
            "##奏": 6592,
            "##抓": 6593,
            "##軒": 6594,
            "##濞": 6595,
            "##豊": 6596,
            "##关": 6597,
            "##宴": 6598,
            "##腐": 6599,
            "##渣": 6600,
            "##騭": 6601,
            "##ѡ": 6602,
            "##依": 6603,
            "##猿": 6604,
            "##繋": 6605,
            "##省": 6606,
            "##አ": 6607,
            "##毬": 6608,
            "##齊": 6609,
            "##儒": 6610,
            "##給": 6611,
            "##禺": 6612,
            "##倫": 6613,
            "##ꮝ": 6614,
            "##ꭶ": 6615,
            "##ꮿ": 6616,
            "##謀": 6617,
            "##স": 6618,
            "##দ": 6619,
            "##话": 6620,
            "##吹": 6621,
            "##鈴": 6622,
            "##边": 6623,
            "##級": 6624,
            "##霰": 6625,
            "##弾": 6626,
            "##硕": 6627,
            "##悫": 6628,
            "##欣": 6629,
            "##ɚ": 6630,
            "##磲": 6631,
            "##থ": 6632,
            "##運": 6633,
            "##糊": 6634,
            "##瘡": 6635,
            "##聃": 6636,
            "##ና": 6637,
            "##ይ": 6638,
            "##礼": 6639,
            "##蛇": 6640,
            "##ʙ": 6641,
            "##ឪ": 6642,
            "##ಭ": 6643,
            "##ཁ": 6644,
            "##འ": 6645,
            "##雉": 6646,
            "##態": 6647,
            "##鑒": 6648,
            "##亨": 6649,
            "##琦": 6650,
            "##థ": 6651,
            "##郁": 6652,
            "##積": 6653,
            "##封": 6654,
            "##尽": 6655,
            "##準": 6656,
            "##說": 6657,
            "##對": 6658,
            "##铭": 6659,
            "##选": 6660,
            "##徳": 6661,
            "##破": 6662,
            "##ぬ": 6663,
            "##副": 6664,
            "##漁": 6665,
            "##帮": 6666,
            "##淘": 6667,
            "##汰": 6668,
            "##ሀ": 6669,
            "##號": 6670,
            "##緯": 6671,
            "##万": 6672,
            "##鏡": 6673,
            "##ট": 6674,
            "##疾": 6675,
            "##ව": 6676,
            "##奧": 6677,
            "##怀": 6678,
            "##孵": 6679,
            "##敢": 6680,
            "##椛": 6681,
            "##顏": 6682,
            "##雾": 6683,
            "##味": 6684,
            "##权": 6685,
            "##新": 6686,
            "##发": 6687,
            "##响": 6688,
            "##兰": 6689,
            "##സ": 6690,
            "##ە": 6691,
            "##ܗ": 6692,
            "##ـ": 6693,
            "##ဘ": 6694,
            "##ហ": 6695,
            "##广": 6696,
            "##繼": 6697,
            "##ⵢ": 6698,
            "##棘": 6699,
            "##勘": 6700,
            "##窓": 6701,
            "##些": 6702,
            "##銳": 6703,
            "##熙": 6704,
            "##禮": 6705,
            "##驤": 6706,
            "##洁": 6707,
            "##ჱ": 6708,
            "##黙": 6709,
            "##锡": 6710,
            "##ਘ": 6711,
            "##们": 6712,
            "##礎": 6713,
            "##識": 6714,
            "##键": 6715,
            "##登": 6716,
            "##传": 6717,
            "##瑪": 6718,
            "##竇": 6719,
            "##矩": 6720,
            "##養": 6721,
            "##跆": 6722,
            "##架": 6723,
            "##仪": 6724,
            "##威": 6725,
            "##寨": 6726,
            "##縄": 6727,
            "##ಗ": 6728,
            "##爽": 6729,
            "##凱": 6730,
            "##喇": 6731,
            "##叫": 6732,
            "##両": 6733,
            "##堤": 6734,
            "##踢": 6735,
            "##易": 6736,
            "##峰": 6737,
            "##權": 6738,
            "##銖": 6739,
            "##瓜": 6740,
            "##産": 6741,
            "##侨": 6742,
            "##胴": 6743,
            "##圓": 6744,
            "##観": 6745,
            "##測": 6746,
            "##婆": 6747,
            "##弦": 6748,
            "##阿": 6749,
            "##炯": 6750,
            "##肃": 6751,
            "##录": 6752,
            "##就": 6753,
            "##炸": 6754,
            "##桧": 6755,
            "##ᆰ": 6756,
            "##李": 6757,
            "##昂": 6758,
            "##𐭉": 6759,
            "##𐭓": 6760,
            "##𐭃": 6761,
            "##𐭕": 6762,
            "##箋": 6763,
            "##黄": 6764,
            "##抵": 6765,
            "##桐": 6766,
            "##服": 6767,
            "##暮": 6768,
            "##鞋": 6769,
            "##揺": 6770,
            "##瑋": 6771,
            "##鸡": 6772,
            "##庆": 6773,
            "##斤": 6774,
            "##髀": 6775,
            "##ద": 6776,
            "##遇": 6777,
            "##镜": 6778,
            "##鉴": 6779,
            "##义": 6780,
            "##聘": 6781,
            "##弱": 6782,
            "##紙": 6783,
            "##券": 6784,
            "##財": 6785,
            "##尊": 6786,
            "##竺": 6787,
            "##體": 6788,
            "##惠": 6789,
            "##保": 6790,
            "##厩": 6791,
            "##乩": 6792,
            "##乃": 6793,
            "##栽": 6794,
            "##簡": 6795,
            "##苺": 6796,
            "##欠": 6797,
            "##柳": 6798,
            "##线": 6799,
            "##ⲩ": 6800,
            "##ⲥ": 6801,
            "##ⲧ": 6802,
            "##ⲁ": 6803,
            "##ⲱ": 6804,
            "##ⲛ": 6805,
            "##沉": 6806,
            "##'": 6807,
            "##靈": 6808,
            "##耆": 6809,
            "##镇": 6810,
            "##痘": 6811,
            "##భ": 6812,
            "##మ": 6813,
            "##壌": 6814,
            "##譌": 6815,
            "##產": 6816,
            "##賓": 6817,
            "##蜃": 6818,
            "##迅": 6819,
            "##灵": 6820,
            "##肩": 6821,
            "##莊": 6822,
            "##亮": 6823,
            "##芮": 6824,
            "##屠": 6825,
            "##纵": 6826,
            "##横": 6827,
            "##驰": 6828,
            "##奔": 6829,
            "##闍": 6830,
            "##梨": 6831,
            "##ƿ": 6832,
            "##陸": 6833,
            "##艳": 6834,
            "##凯": 6835,
            "##漸": 6836,
            "##棲": 6837,
            "##位": 6838,
            "##芙": 6839,
            "##任": 6840,
            "##控": 6841,
            "##員": 6842,
            "##හ": 6843,
            "##ය": 6844,
            "##宣": 6845,
            "##誡": 6846,
            "##妃": 6847,
            "##ಬ": 6848,
            "##韓": 6849,
            "##授": 6850,
            "##笛": 6851,
            "##惟": 6852,
            "##杜": 6853,
            "##完": 6854,
            "##陶": 6855,
            "##唯": 6856,
            "##鸟": 6857,
            "##赭": 6858,
            "##燕": 6859,
            "##ખ": 6860,
            "##祠": 6861,
            "##確": 6862,
            "##危": 6863,
            "##机": 6864,
            "##碍": 6865,
            "##ｍ": 6866,
            "##鸿": 6867,
            "##苣": 6868,
            "##庇": 6869,
            "##予": 6870,
            "##感": 6871,
            "##შ": 6872,
            "##ខ": 6873,
            "##ዕ": 6874,
            "##ቆ": 6875,
            "##韶": 6876,
            "##槤": 6877,
            "##飄": 6878,
            "##嶋": 6879,
            "##鱀": 6880,
            "##豚": 6881,
            "##馆": 6882,
            "##养": 6883,
            "##姬": 6884,
            "##需": 6885,
            "##慧": 6886,
            "##妻": 6887,
            "##培": 6888,
            "##纪": 6889,
            "##实": 6890,
            "##付": 6891,
            "##悲": 6892,
            "##謝": 6893,
            "##庵": 6894,
            "##ฆ": 6895,
            "##採": 6896,
            "##購": 6897,
            "##収": 6898,
            "##增": 6899,
            "##霆": 6900,
            "##罰": 6901,
            "##騰": 6902,
            "##舟": 6903,
            "##壱": 6904,
            "##剑": 6905,
            "##翘": 6906,
            "##ᒡ": 6907,
            "##ᓘ": 6908,
            "##ᑲ": 6909,
            "##倭": 6910,
            "##貴": 6911,
            "##尧": 6912,
            "##ɢ": 6913,
            "##功": 6914,
            "##渠": 6915,
            "##銓": 6916,
            "##焔": 6917,
            "##蛙": 6918,
            "##囁": 6919,
            "##雁": 6920,
            "##ළ": 6921,
            "##驁": 6922,
            "##更": 6923,
            "##近": 6924,
            "##坚": 6925,
            "##秦": 6926,
            "##ཙ": 6927,
            "##霸": 6928,
            "##汇": 6929,
            "##级": 6930,
            "##纲": 6931,
            "##瓦": 6932,
            "##群": 6933,
            "##终": 6934,
            "##壷": 6935,
            "##伴": 6936,
            "##颖": 6937,
            "##达": 6938,
            "##答": 6939,
            "##毘": 6940,
            "##砖": 6941,
            "##尔": 6942,
            "##ᠴ": 6943,
            "##ජ": 6944,
            "##才": 6945,
            "##ཡ": 6946,
            "##稔": 6947,
            "##伏": 6948,
            "##瓷": 6949,
            "##块": 6950,
            "##霖": 6951,
            "##數": 6952,
            "##阪": 6953,
            "##廊": 6954,
            "##颂": 6955,
            "##嘘": 6956,
            "##颊": 6957,
            "##ꮃ": 6958,
            "##ꮀ": 6959,
            "##ꮉ": 6960,
            "##桀": 6961,
            "##ܚ": 6962,
            "##ᆻ": 6963,
            "##冶": 6964,
            "##充": 6965,
            "##淹": 6966,
            "##钊": 6967,
            "##詠": 6968,
            "##鉦": 6969,
            "##户": 6970,
            "##樉": 6971,
            "##菇": 6972,
            "##节": 6973,
            "##冠": 6974,
            "##秒": 6975,
            "##综": 6976,
            "##孝": 6977,
            "##瓊": 6978,
            "##鶴": 6979,
            "##遗": 6980,
            "##莎": 6981,
            "##臘": 6982,
            "##卓": 6983,
            "##妍": 6984,
            "##贞": 6985,
            "##襟": 6986,
            "##ȷ": 6987,
            "##脉": 6988,
            "##塞": 6989,
            "##办": 6990,
            "##劍": 6991,
            "##翹": 6992,
            "##麼": 6993,
            "##兆": 6994,
            "##椰": 6995,
            "##煩": 6996,
            "##ѥ": 6997,
            "##課": 6998,
            "##辰": 6999,
            "##煜": 7000,
            "##刊": 7001,
            "##悠": 7002,
            "##ꭸ": 7003,
            "##ᏹ": 7004,
            "##祐": 7005,
            "##ᵊ": 7006,
            "##虫": 7007,
            "##盼": 7008,
            "##镗": 7009,
            "##屍": 7010,
            "##鉢": 7011,
            "##禁": 7012,
            "##邁": 7013,
            "##禎": 7014,
            "##暦": 7015,
            "##藥": 7016,
            "##ᶷ": 7017,
            "##ᆮ": 7018,
            "##柔": 7019,
            "##喬": 7020,
            "##管": 7021,
            "##委": 7022,
            "##併": 7023,
            "##బ": 7024,
            "##亀": 7025,
            "##標": 7026,
            "##緩": 7027,
            "##没": 7028,
            "##悼": 7029,
            "##候": 7030,
            "##瑜": 7031,
            "##沽": 7032,
            "##丝": 7033,
            "##晒": 7034,
            "##墙": 7035,
            "##继": 7036,
            "##ኲ": 7037,
            "##辯": 7038,
            "##讀": 7039,
            "##導": 7040,
            "##糖": 7041,
            "##鮫": 7042,
            "##杀": 7043,
            "##ള": 7044,
            "##娘": 7045,
            "##ყ": 7046,
            "##豫": 7047,
            "##紡": 7048,
            "##犬": 7049,
            "##巂": 7050,
            "##璉": 7051,
            "##ಠ": 7052,
            "##除": 7053,
            "##菊": 7054,
            "##谦": 7055,
            "##坑": 7056,
            "##虐": 7057,
            "##丽": 7058,
            "##萍": 7059,
            "##ჳ": 7060,
            "##踏": 7061,
            "##姦": 7062,
            "##𐎰": 7063,
            "##裳": 7064,
            "##欽": 7065,
            "##靠": 7066,
            "##腿": 7067,
            "##溢": 7068,
            "##曾": 7069,
            "##糸": 7070,
            "##滨": 7071,
            "##灼": 7072,
            "##ϑ": 7073,
            "##ሕ": 7074,
            "##ዛ": 7075,
            "##寬": 7076,
            "##兔": 7077,
            "##袈": 7078,
            "##裟": 7079,
            "##ｰ": 7080,
            "##他": 7081,
            "##栄": 7082,
            "##莘": 7083,
            "th": 7084,
            "the": 7085,
            "##er": 7086,
            "##in": 7087,
            "##ed": 7088,
            "##on": 7089,
            "##nd": 7090,
            "##es": 7091,
            "##or": 7092,
            "##at": 7093,
            "##en": 7094,
            "##ar": 7095,
            "in": 7096,
            "of": 7097,
            "##an": 7098,
            "##al": 7099,
            "##it": 7100,
            "##ing": 7101,
            "##as": 7102,
            "and": 7103,
            "##is": 7104,
            "to": 7105,
            "##ic": 7106,
            "##ou": 7107,
            "##ion": 7108,
            "##re": 7109,
            "##om": 7110,
            "##el": 7111,
            "##il": 7112,
            "##ec": 7113,
            "##ent": 7114,
            "##st": 7115,
            "##et": 7116,
            "##am": 7117,
            "##ro": 7118,
            "on": 7119,
            "##ac": 7120,
            "##ad": 7121,
            "was": 7122,
            "##ur": 7123,
            "st": 7124,
            "##th": 7125,
            "##ol": 7126,
            "for": 7127,
            "##le": 7128,
            "##ly": 7129,
            "##ir": 7130,
            "wh": 7131,
            "as": 7132,
            "##ter": 7133,
            "##id": 7134,
            "@-": 7135,
            "@-@": 7136,
            "##iv": 7137,
            "##ig": 7138,
            "re": 7139,
            "##ith": 7140,
            "##im": 7141,
            "##ow": 7142,
            "##ay": 7143,
            "##ch": 7144,
            "be": 7145,
            "al": 7146,
            "##ut": 7147,
            "with": 7148,
            "##ation": 7149,
            "##ers": 7150,
            "that": 7151,
            "##ot": 7152,
            "##em": 7153,
            "it": 7154,
            "con": 7155,
            "an": 7156,
            "by": 7157,
            "at": 7158,
            "fr": 7159,
            "is": 7160,
            "he": 7161,
            "##us": 7162,
            "##ce": 7163,
            "ch": 7164,
            "##ver": 7165,
            "sh": 7166,
            "##ul": 7167,
            "##os": 7168,
            "##est": 7169,
            "##and": 7170,
            "##ain": 7171,
            "his": 7172,
            "##ag": 7173,
            "##av": 7174,
            "##um": 7175,
            "com": 7176,
            "##ere": 7177,
            "##ct": 7178,
            "su": 7179,
            "se": 7180,
            "from": 7181,
            "pro": 7182,
            "##od": 7183,
            "##ess": 7184,
            "de": 7185,
            "##ri": 7186,
            "##ap": 7187,
            "##ist": 7188,
            "##ect": 7189,
            "##un": 7190,
            "##igh": 7191,
            "ne": 7192,
            "##op": 7193,
            "##ill": 7194,
            "##ies": 7195,
            "##ich": 7196,
            "##ard": 7197,
            "##ber": 7198,
            "##if": 7199,
            "##art": 7200,
            "or": 7201,
            "ar": 7202,
            "##ld": 7203,
            "##all": 7204,
            "##ak": 7205,
            "ex": 7206,
            "pl": 7207,
            "were": 7208,
            "##ate": 7209,
            "##oc": 7210,
            "un": 7211,
            "##ab": 7212,
            "pr": 7213,
            "##pp": 7214,
            "le": 7215,
            "##ant": 7216,
            "sp": 7217,
            "##ud": 7218,
            "##gh": 7219,
            "##ort": 7220,
            "##ong": 7221,
            "tr": 7222,
            "##se": 7223,
            "##ated": 7224,
            "##ity": 7225,
            "##ive": 7226,
            "##ie": 7227,
            "en": 7228,
            "##ame": 7229,
            "had": 7230,
            "##ish": 7231,
            "##ore": 7232,
            "##ther": 7233,
            "##ack": 7234,
            "##ear": 7235,
            "##ip": 7236,
            "##our": 7237,
            "##ast": 7238,
            "which": 7239,
            "##ge": 7240,
            "##ell": 7241,
            "##ov": 7242,
            "##ough": 7243,
            "are": 7244,
            "##ian": 7245,
            "##ment": 7246,
            "af": 7247,
            "not": 7248,
            "##ial": 7249,
            "##ound": 7250,
            "##ost": 7251,
            "##pt": 7252,
            "rec": 7253,
            "##ia": 7254,
            "cl": 7255,
            "##ight": 7256,
            "##qu": 7257,
            "##ust": 7258,
            "wor": 7259,
            "##ary": 7260,
            "##ine": 7261,
            "br": 7262,
            "##oun": 7263,
            "ad": 7264,
            "##cc": 7265,
            "##ical": 7266,
            "##ave": 7267,
            "comp": 7268,
            "fir": 7269,
            "her": 7270,
            "but": 7271,
            "##ord": 7272,
            "this": 7273,
            "##out": 7274,
            "bo": 7275,
            "sc": 7276,
            "cont": 7277,
            "##ould": 7278,
            "inc": 7279,
            "tw": 7280,
            "##ous": 7281,
            "ab": 7282,
            "after": 7283,
            "int": 7284,
            "first": 7285,
            "gr": 7286,
            "##ions": 7287,
            "##ach": 7288,
            "##so": 7289,
            "res": 7290,
            "its": 7291,
            "new": 7292,
            "##ure": 7293,
            "am": 7294,
            "their": 7295,
            "all": 7296,
            "man": 7297,
            "one": 7298,
            "##ue": 7299,
            "##per": 7300,
            "##og": 7301,
            "per": 7302,
            "##ass": 7303,
            "##ign": 7304,
            "also": 7305,
            "##ome": 7306,
            "mar": 7307,
            "##ok": 7308,
            "##ub": 7309,
            "us": 7310,
            "rel": 7311,
            "##oll": 7312,
            "##ater": 7313,
            "tim": 7314,
            "##age": 7315,
            "##ide": 7316,
            "##ond": 7317,
            "they": 7318,
            "##orm": 7319,
            "ser": 7320,
            "##ath": 7321,
            "##ire": 7322,
            "##ru": 7323,
            "two": 7324,
            "ag": 7325,
            "part": 7326,
            "##ry": 7327,
            "fe": 7328,
            "comm": 7329,
            "des": 7330,
            "##rit": 7331,
            "##ans": 7332,
            "have": 7333,
            "##du": 7334,
            "bec": 7335,
            "go": 7336,
            "##ally": 7337,
            "##ff": 7338,
            "##pl": 7339,
            "##ence": 7340,
            "who": 7341,
            "dis": 7342,
            "app": 7343,
            "she": 7344,
            "##ree": 7345,
            "##end": 7346,
            "##ile": 7347,
            "##ance": 7348,
            "##ra": 7349,
            "@.": 7350,
            "@.@": 7351,
            "##ition": 7352,
            "we": 7353,
            "year": 7354,
            "##own": 7355,
            "ro": 7356,
            "##iz": 7357,
            "off": 7358,
            "has": 7359,
            "play": 7360,
            "##act": 7361,
            "##uring": 7362,
            "been": 7363,
            "##ely": 7364,
            "over": 7365,
            "@,": 7366,
            "@,@": 7367,
            "im": 7368,
            "car": 7369,
            "##ult": 7370,
            "##lud": 7371,
            "##ice": 7372,
            "##ory": 7373,
            "out": 7374,
            "##ations": 7375,
            "co": 7376,
            "up": 7377,
            "##ember": 7378,
            "inter": 7379,
            "att": 7380,
            "ev": 7381,
            "##ace": 7382,
            "dec": 7383,
            "##ke": 7384,
            "fin": 7385,
            "##ens": 7386,
            "##wn": 7387,
            "when": 7388,
            "##land": 7389,
            "pre": 7390,
            "##ade": 7391,
            "##ib": 7392,
            "##pr": 7393,
            "time": 7394,
            "##ail": 7395,
            "nor": 7396,
            "##eas": 7397,
            "other": 7398,
            "can": 7399,
            "during": 7400,
            "##ount": 7401,
            "##urn": 7402,
            "fl": 7403,
            "includ": 7404,
            "ind": 7405,
            "##ced": 7406,
            "te": 7407,
            "would": 7408,
            "##ric": 7409,
            "sec": 7410,
            "##ks": 7411,
            "fil": 7412,
            "##ang": 7413,
            "##ward": 7414,
            "##man": 7415,
            "##one": 7416,
            "into": 7417,
            "##we": 7418,
            "him": 7419,
            "act": 7420,
            "bl": 7421,
            "##ite": 7422,
            "##int": 7423,
            "ear": 7424,
            "##ates": 7425,
            "war": 7426,
            "##ph": 7427,
            "jo": 7428,
            "##ied": 7429,
            "##able": 7430,
            "bet": 7431,
            "more": 7432,
            "char": 7433,
            "##nder": 7434,
            "high": 7435,
            "##ose": 7436,
            "##ited": 7437,
            "cent": 7438,
            "form": 7439,
            "##amp": 7440,
            "film": 7441,
            "par": 7442,
            "##way": 7443,
            "me": 7444,
            "##ents": 7445,
            "acc": 7446,
            "##les": 7447,
            "##ces": 7448,
            "cons": 7449,
            "sou": 7450,
            "##ors": 7451,
            "el": 7452,
            "##old": 7453,
            "##aw": 7454,
            "##ason": 7455,
            "##form": 7456,
            "##ings": 7457,
            "while": 7458,
            "no": 7459,
            "mus": 7460,
            "##vel": 7461,
            "##te": 7462,
            "most": 7463,
            "##ild": 7464,
            "game": 7465,
            "##ft": 7466,
            "there": 7467,
            "thr": 7468,
            "##port": 7469,
            "kn": 7470,
            "rem": 7471,
            "##ind": 7472,
            "##ict": 7473,
            "gen": 7474,
            "##gr": 7475,
            "##ick": 7476,
            "ass": 7477,
            "##fer": 7478,
            "##att": 7479,
            "##ious": 7480,
            "##ake": 7481,
            "how": 7482,
            "##aus": 7483,
            "qu": 7484,
            "em": 7485,
            "##iss": 7486,
            "bu": 7487,
            "later": 7488,
            "song": 7489,
            "produ": 7490,
            "again": 7491,
            "only": 7492,
            "reg": 7493,
            "##gan": 7494,
            "so": 7495,
            "##rib": 7496,
            "##ved": 7497,
            "under": 7498,
            "##ey": 7499,
            "work": 7500,
            "##ction": 7501,
            "##eld": 7502,
            "##ood": 7503,
            "##reat": 7504,
            "sy": 7505,
            "may": 7506,
            "them": 7507,
            "ret": 7508,
            "than": 7509,
            "some": 7510,
            "po": 7511,
            "##ered": 7512,
            "sch": 7513,
            "##als": 7514,
            "three": 7515,
            "pe": 7516,
            "col": 7517,
            "about": 7518,
            "##ubl": 7519,
            "##ix": 7520,
            "##ween": 7521,
            "##ons": 7522,
            "between": 7523,
            "ph": 7524,
            "##ollow": 7525,
            "day": 7526,
            "air": 7527,
            "bro": 7528,
            "north": 7529,
            "mon": 7530,
            "rev": 7531,
            "through": 7532,
            "record": 7533,
            "##hip": 7534,
            "follow": 7535,
            "eng": 7536,
            "##ock": 7537,
            "ma": 7538,
            "##ational": 7539,
            "bas": 7540,
            "second": 7541,
            "##fore": 7542,
            "end": 7543,
            "li": 7544,
            "##eric": 7545,
            "##rop": 7546,
            "releas": 7547,
            "num": 7548,
            "ac": 7549,
            "##ters": 7550,
            "sub": 7551,
            "min": 7552,
            "pres": 7553,
            "##hn": 7554,
            "dr": 7555,
            "##orn": 7556,
            "sa": 7557,
            "##iew": 7558,
            "pol": 7559,
            "alb": 7560,
            "season": 7561,
            "def": 7562,
            "four": 7563,
            "au": 7564,
            "ep": 7565,
            "pos": 7566,
            "americ": 7567,
            "world": 7568,
            "do": 7569,
            "##eth": 7570,
            "where": 7571,
            "cap": 7572,
            "before": 7573,
            "team": 7574,
            "mov": 7575,
            "south": 7576,
            "##ral": 7577,
            "##ular": 7578,
            "spec": 7579,
            "##ating": 7580,
            "##ames": 7581,
            "writ": 7582,
            "arm": 7583,
            "sm": 7584,
            "lar": 7585,
            "made": 7586,
            "gu": 7587,
            "##ision": 7588,
            "will": 7589,
            "##ived": 7590,
            "such": 7591,
            "sur": 7592,
            "sing": 7593,
            "##ton": 7594,
            "album": 7595,
            "publ": 7596,
            "##son": 7597,
            "##atch": 7598,
            "##ished": 7599,
            "sever": 7600,
            "##ever": 7601,
            "##io": 7602,
            "years": 7603,
            "##ained": 7604,
            "##itt": 7605,
            "##ode": 7606,
            "##ics": 7607,
            "##ros": 7608,
            "supp": 7609,
            "loc": 7610,
            "##red": 7611,
            "call": 7612,
            "##ery": 7613,
            "count": 7614,
            "back": 7615,
            "show": 7616,
            "str": 7617,
            "add": 7618,
            "inv": 7619,
            "gener": 7620,
            "##let": 7621,
            "both": 7622,
            "##ected": 7623,
            "##tern": 7624,
            "##ual": 7625,
            "then": 7626,
            "art": 7627,
            "##ily": 7628,
            "however": 7629,
            "epis": 7630,
            "used": 7631,
            "mill": 7632,
            "rece": 7633,
            "batt": 7634,
            "##ning": 7635,
            "##ific": 7636,
            "being": 7637,
            "these": 7638,
            "##au": 7639,
            "well": 7640,
            "##ep": 7641,
            "##ury": 7642,
            "##ection": 7643,
            "stud": 7644,
            "##ve": 7645,
            "series": 7646,
            "against": 7647,
            "ed": 7648,
            "##oup": 7649,
            "##air": 7650,
            "set": 7651,
            "##ank": 7652,
            "charac": 7653,
            "bel": 7654,
            "##ale": 7655,
            "inst": 7656,
            "##velop": 7657,
            "found": 7658,
            "number": 7659,
            "##ife": 7660,
            "##ement": 7661,
            "lead": 7662,
            "many": 7663,
            "music": 7664,
            "##ert": 7665,
            "sim": 7666,
            "##led": 7667,
            "perform": 7668,
            "##ten": 7669,
            "main": 7670,
            "long": 7671,
            "city": 7672,
            "op": 7673,
            "pop": 7674,
            "##ane": 7675,
            "##az": 7676,
            "##ool": 7677,
            "ter": 7678,
            "##ause": 7679,
            "##ince": 7680,
            "##oy": 7681,
            "develop": 7682,
            "##ron": 7683,
            "##fl": 7684,
            "became": 7685,
            "met": 7686,
            "##other": 7687,
            "united": 7688,
            "dire": 7689,
            "hist": 7690,
            "several": 7691,
            "including": 7692,
            "##igin": 7693,
            "sl": 7694,
            "cre": 7695,
            "state": 7696,
            "brit": 7697,
            "mil": 7698,
            "early": 7699,
            "##ise": 7700,
            "div": 7701,
            "##ower": 7702,
            "##ier": 7703,
            "origin": 7704,
            "##vern": 7705,
            "##ised": 7706,
            "ob": 7707,
            "trans": 7708,
            "did": 7709,
            "##its": 7710,
            "appear": 7711,
            "##ork": 7712,
            "##ures": 7713,
            "dist": 7714,
            "##ather": 7715,
            "##ines": 7716,
            "nov": 7717,
            "ext": 7718,
            "ste": 7719,
            "ship": 7720,
            "contin": 7721,
            "govern": 7722,
            "##olog": 7723,
            "pers": 7724,
            "##ities": 7725,
            "conc": 7726,
            "win": 7727,
            "##elf": 7728,
            "##are": 7729,
            "prov": 7730,
            "##ole": 7731,
            "episode": 7732,
            "##til": 7733,
            "##iet": 7734,
            "states": 7735,
            "##ross": 7736,
            "est": 7737,
            "crit": 7738,
            "said": 7739,
            "john": 7740,
            "##ird": 7741,
            "ann": 7742,
            "##uch": 7743,
            "##ful": 7744,
            "following": 7745,
            "const": 7746,
            "##ley": 7747,
            "design": 7748,
            "group": 7749,
            "##ield": 7750,
            "cr": 7751,
            "exp": 7752,
            "##eng": 7753,
            "could": 7754,
            "dif": 7755,
            "med": 7756,
            "##ative": 7757,
            "oper": 7758,
            "return": 7759,
            "run": 7760,
            "##ouse": 7761,
            "american": 7762,
            "##ah": 7763,
            "##ought": 7764,
            "desc": 7765,
            "bar": 7766,
            "##ann": 7767,
            "alth": 7768,
            "##anc": 7769,
            "known": 7770,
            "##uc": 7771,
            "##sp": 7772,
            "##der": 7773,
            "dep": 7774,
            "although": 7775,
            "near": 7776,
            "direct": 7777,
            "aust": 7778,
            "any": 7779,
            "ger": 7780,
            "##ivers": 7781,
            "west": 7782,
            "sign": 7783,
            "serv": 7784,
            "##emb": 7785,
            "har": 7786,
            "mod": 7787,
            "jun": 7788,
            "king": 7789,
            "pass": 7790,
            "down": 7791,
            "##ase": 7792,
            "##ually": 7793,
            "land": 7794,
            "##ident": 7795,
            "fam": 7796,
            "disc": 7797,
            "##iver": 7798,
            "##iam": 7799,
            "##ued": 7800,
            "began": 7801,
            "red": 7802,
            "lo": 7803,
            "gre": 7804,
            "like": 7805,
            "##ern": 7806,
            "offic": 7807,
            "##ined": 7808,
            "eff": 7809,
            "until": 7810,
            "feat": 7811,
            "##row": 7812,
            "##ople": 7813,
            "##ism": 7814,
            "##ject": 7815,
            "##ange": 7816,
            "##aking": 7817,
            "##enn": 7818,
            "school": 7819,
            "along": 7820,
            "because": 7821,
            "own": 7822,
            "##ele": 7823,
            "##ided": 7824,
            "point": 7825,
            "released": 7826,
            "rep": 7827,
            "port": 7828,
            "open": 7829,
            "##ccess": 7830,
            "resp": 7831,
            "##ty": 7832,
            "##ized": 7833,
            "##ins": 7834,
            "called": 7835,
            "imp": 7836,
            "national": 7837,
            "prev": 7838,
            "##els": 7839,
            "star": 7840,
            "maj": 7841,
            "##aph": 7842,
            "##ists": 7843,
            "ju": 7844,
            "##ts": 7845,
            "people": 7846,
            "##ured": 7847,
            "##stem": 7848,
            "you": 7849,
            "wee": 7850,
            "##ys": 7851,
            "##ially": 7852,
            "bre": 7853,
            "##ution": 7854,
            "##gg": 7855,
            "class": 7856,
            "adv": 7857,
            "million": 7858,
            "##ull": 7859,
            "##osed": 7860,
            "just": 7861,
            "##rol": 7862,
            "##ium": 7863,
            "cour": 7864,
            "system": 7865,
            "id": 7866,
            "british": 7867,
            "ever": 7868,
            "since": 7869,
            "head": 7870,
            "six": 7871,
            "##ession": 7872,
            "best": 7873,
            "around": 7874,
            "aug": 7875,
            "cor": 7876,
            "major": 7877,
            "award": 7878,
            "life": 7879,
            "var": 7880,
            "##cept": 7881,
            "if": 7882,
            "##up": 7883,
            "##ets": 7884,
            "##ene": 7885,
            "la": 7886,
            "##ash": 7887,
            "each": 7888,
            "success": 7889,
            "##any": 7890,
            "##ains": 7891,
            "attack": 7892,
            "sept": 7893,
            "av": 7894,
            "##xt": 7895,
            "##ently": 7896,
            "##ments": 7897,
            "coll": 7898,
            "character": 7899,
            "##ark": 7900,
            "##oot": 7901,
            "use": 7902,
            "arr": 7903,
            "september": 7904,
            "describ": 7905,
            "august": 7906,
            "start": 7907,
            "##amed": 7908,
            "##ont": 7909,
            "same": 7910,
            "##ible": 7911,
            "road": 7912,
            "tri": 7913,
            "ge": 7914,
            "east": 7915,
            "##aced": 7916,
            "occ": 7917,
            "final": 7918,
            "support": 7919,
            "result": 7920,
            "oct": 7921,
            "dem": 7922,
            "##yp": 7923,
            "another": 7924,
            "hel": 7925,
            "five": 7926,
            "public": 7927,
            "##aining": 7928,
            "sw": 7929,
            "##ik": 7930,
            "prom": 7931,
            "km": 7932,
            "##ended": 7933,
            "##ired": 7934,
            "build": 7935,
            "great": 7936,
            "my": 7937,
            "old": 7938,
            "austral": 7939,
            "camp": 7940,
            "##aving": 7941,
            "##eter": 7942,
            "gl": 7943,
            "##ues": 7944,
            "took": 7945,
            "##cl": 7946,
            "sk": 7947,
            "band": 7948,
            "german": 7949,
            "##ruct": 7950,
            "ra": 7951,
            "##ob": 7952,
            "line": 7953,
            "book": 7954,
            "area": 7955,
            "mid": 7956,
            "house": 7957,
            "small": 7958,
            "complet": 7959,
            "##ted": 7960,
            "march": 7961,
            "report": 7962,
            "##ner": 7963,
            "consid": 7964,
            "##ove": 7965,
            "century": 7966,
            "##ober": 7967,
            "##und": 7968,
            "turn": 7969,
            "##urch": 7970,
            "received": 7971,
            "##raft": 7972,
            "october": 7973,
            "##uss": 7974,
            "chr": 7975,
            "##ants": 7976,
            "stre": 7977,
            "rout": 7978,
            "univers": 7979,
            "##ives": 7980,
            "##ically": 7981,
            "##ble": 7982,
            "##ead": 7983,
            "what": 7984,
            "##app": 7985,
            "games": 7986,
            "##thern": 7987,
            "partic": 7988,
            "due": 7989,
            "short": 7990,
            "##ison": 7991,
            "last": 7992,
            "government": 7993,
            "hal": 7994,
            "##ility": 7995,
            "vers": 7996,
            "##gin": 7997,
            "rest": 7998,
            "##ately": 7999,
            "##ina": 8000,
            "ent": 8001,
            "ke": 8002,
            "command": 8003,
            "match": 8004,
            "person": 8005,
            "##ored": 8006,
            "eu": 8007,
            "leg": 8008,
            "##ians": 8009,
            "##oss": 8010,
            "way": 8011,
            "##ink": 8012,
            "june": 8013,
            "jan": 8014,
            "mag": 8015,
            "home": 8016,
            "prot": 8017,
            "mark": 8018,
            "del": 8019,
            "third": 8020,
            "general": 8021,
            "single": 8022,
            "conv": 8023,
            "squ": 8024,
            "##ting": 8025,
            "##ission": 8026,
            "july": 8027,
            "child": 8028,
            "capt": 8029,
            "##iving": 8030,
            "men": 8031,
            "tit": 8032,
            "##inc": 8033,
            "november": 8034,
            "track": 8035,
            "apr": 8036,
            "death": 8037,
            "fur": 8038,
            "care": 8039,
            "review": 8040,
            "much": 8041,
            "##ute": 8042,
            "event": 8043,
            "island": 8044,
            "york": 8045,
            "reach": 8046,
            "##lish": 8047,
            "april": 8048,
            "top": 8049,
            "differ": 8050,
            "dam": 8051,
            "##ogr": 8052,
            "large": 8053,
            "##uary": 8054,
            "cal": 8055,
            "accord": 8056,
            "power": 8057,
            "even": 8058,
            "left": 8059,
            "soc": 8060,
            "town": 8061,
            "##res": 8062,
            "##ural": 8063,
            "cast": 8064,
            "gun": 8065,
            "vide": 8066,
            "intern": 8067,
            "##erg": 8068,
            "##ench": 8069,
            "allow": 8070,
            "##ling": 8071,
            "##ively": 8072,
            "##sc": 8073,
            "month": 8074,
            "##aim": 8075,
            "##idge": 8076,
            "kill": 8077,
            "##ilt": 8078,
            "##bo": 8079,
            "story": 8080,
            "progr": 8081,
            "appro": 8082,
            "##ats": 8083,
            "vis": 8084,
            "based": 8085,
            "family": 8086,
            "##ague": 8087,
            "place": 8088,
            "cur": 8089,
            "now": 8090,
            "vict": 8091,
            "##ales": 8092,
            "incre": 8093,
            "expl": 8094,
            "park": 8095,
            "ang": 8096,
            "black": 8097,
            "##bert": 8098,
            "##ified": 8099,
            "##ms": 8100,
            "right": 8101,
            "spe": 8102,
            "##over": 8103,
            "law": 8104,
            "company": 8105,
            "army": 8106,
            "ele": 8107,
            "##avy": 8108,
            "enter": 8109,
            "##empt": 8110,
            "conf": 8111,
            "december": 8112,
            "history": 8113,
            "##enc": 8114,
            "##ether": 8115,
            "club": 8116,
            "played": 8117,
            "addition": 8118,
            "storm": 8119,
            "far": 8120,
            "according": 8121,
            "post": 8122,
            "river": 8123,
            "included": 8124,
            "##by": 8125,
            "##..": 8126,
            "name": 8127,
            "led": 8128,
            "january": 8129,
            "water": 8130,
            "##rote": 8131,
            "battle": 8132,
            "##ention": 8133,
            "##ient": 8134,
            "##ograph": 8135,
            "hand": 8136,
            "##aged": 8137,
            "wind": 8138,
            "##apan": 8139,
            "##ball": 8140,
            "##ime": 8141,
            "ii": 8142,
            "##side": 8143,
            "##eal": 8144,
            "wom": 8145,
            "wrote": 8146,
            "won": 8147,
            "larg": 8148,
            "hum": 8149,
            "##ared": 8150,
            "##ony": 8151,
            "##ven": 8152,
            "japan": 8153,
            "times": 8154,
            "ant": 8155,
            "##min": 8156,
            "##ages": 8157,
            "organ": 8158,
            "##ott": 8159,
            "pat": 8160,
            "opp": 8161,
            "...": 8162,
            "val": 8163,
            "##ience": 8164,
            "##ll": 8165,
            "requ": 8166,
            "previous": 8167,
            "within": 8168,
            "##ract": 8169,
            "deb": 8170,
            "##ody": 8171,
            "rad": 8172,
            "make": 8173,
            "described": 8174,
            "init": 8175,
            "##ital": 8176,
            "##med": 8177,
            "those": 8178,
            "##sh": 8179,
            "bill": 8180,
            "still": 8181,
            "champ": 8182,
            "video": 8183,
            "control": 8184,
            "##erv": 8185,
            "##ides": 8186,
            "next": 8187,
            "memb": 8188,
            "late": 8189,
            "stand": 8190,
            "##omin": 8191,
            "named": 8192,
            "##ption": 8193,
            "belie": 8194,
            "bus": 8195,
            "week": 8196,
            "original": 8197,
            "among": 8198,
            "release": 8199,
            "further": 8200,
            "attempt": 8201,
            "repl": 8202,
            "##aff": 8203,
            "##ech": 8204,
            "##ister": 8205,
            "##por": 8206,
            "list": 8207,
            "##iven": 8208,
            "league": 8209,
            "##ilar": 8210,
            "force": 8211,
            "very": 8212,
            "effect": 8213,
            "dest": 8214,
            "##ature": 8215,
            "poss": 8216,
            "foot": 8217,
            "view": 8218,
            "iss": 8219,
[...]
